{
  "version": "1.0",
  "truncation": null,
  "padding": null,
  "added_tokens": [
    {
      "id": 36309,
      "content": "GEN",
      "single_word": true,
      "lstrip": false,
      "rstrip": false,
      "normalized": false,
      "special": true
    },
    {
      "id": 80367,
      "content": "SUM",
      "single_word": true,
      "lstrip": false,
      "rstrip": false,
      "normalized": false,
      "special": true
    },
    {
      "id": 95090,
      "content": "SELECT",
      "single_word": true,
      "lstrip": false,
      "rstrip": false,
      "normalized": false,
      "special": true
    },
    {
      "id": 115514,
      "content": "ACTION",
      "single_word": true,
      "lstrip": false,
      "rstrip": false,
      "normalized": false,
      "special": true
    },
    {
      "id": 127933,
      "content": "<pad>",
      "single_word": false,
      "lstrip": false,
      "rstrip": false,
      "normalized": false,
      "special": true
    },
    {
      "id": 127934,
      "content": "<unk>",
      "single_word": false,
      "lstrip": false,
      "rstrip": false,
      "normalized": false,
      "special": true
    },
    {
      "id": 127935,
      "content": "<s>",
      "single_word": false,
      "lstrip": false,
      "rstrip": false,
      "normalized": false,
      "special": true
    },
    {
      "id": 127936,
      "content": "</s>",
      "single_word": false,
      "lstrip": false,
      "rstrip": false,
      "normalized": false,
      "special": true
    },
    {
      "id": 127937,
      "content": "<|system|>",
      "single_word": false,
      "lstrip": false,
      "rstrip": false,
      "normalized": false,
      "special": true
    },
    {
      "id": 127938,
      "content": "<|user|>",
      "single_word": false,
      "lstrip": false,
      "rstrip": false,
      "normalized": false,
      "special": true
    },
    {
      "id": 127939,
      "content": "<|assistant|>",
      "single_word": false,
      "lstrip": false,
      "rstrip": false,
      "normalized": false,
      "special": true
    },
    {
      "id": 127940,
      "content": "<|tool|>",
      "single_word": false,
      "lstrip": false,
      "rstrip": false,
      "normalized": false,
      "special": true
    },
    {
      "id": 127941,
      "content": "<|image|>",
      "single_word": false,
      "lstrip": false,
      "rstrip": false,
      "normalized": false,
      "special": true
    },
    {
      "id": 127942,
      "content": "<|audio|>",
      "single_word": false,
      "lstrip": false,
      "rstrip": false,
      "normalized": false,
      "special": true
    },
    {
      "id": 127943,
      "content": "[MY_STATE]",
      "single_word": false,
      "lstrip": false,
      "rstrip": false,
      "normalized": false,
      "special": true
    },
    {
      "id": 127944,
      "content": "[/MY_STATE]",
      "single_word": false,
      "lstrip": false,
      "rstrip": false,
      "normalized": false,
      "special": true
    },
    {
      "id": 127945,
      "content": "[INSTRUCTION]",
      "single_word": false,
      "lstrip": false,
      "rstrip": false,
      "normalized": false,
      "special": true
    },
    {
      "id": 127946,
      "content": "[/INSTRUCTION]",
      "single_word": false,
      "lstrip": false,
      "rstrip": false,
      "normalized": false,
      "special": true
    },
    {
      "id": 127947,
      "content": "[THINKING]",
      "single_word": false,
      "lstrip": false,
      "rstrip": false,
      "normalized": false,
      "special": true
    },
    {
      "id": 127948,
      "content": "[/THINKING]",
      "single_word": false,
      "lstrip": false,
      "rstrip": false,
      "normalized": false,
      "special": true
    },
    {
      "id": 127949,
      "content": "[MEMORY]",
      "single_word": false,
      "lstrip": false,
      "rstrip": false,
      "normalized": false,
      "special": true
    },
    {
      "id": 127950,
      "content": "[/MEMORY]",
      "single_word": false,
      "lstrip": false,
      "rstrip": false,
      "normalized": false,
      "special": true
    },
    {
      "id": 127951,
      "content": "[SPECIALIST]",
      "single_word": false,
      "lstrip": false,
      "rstrip": false,
      "normalized": false,
      "special": true
    },
    {
      "id": 127952,
      "content": "[/SPECIALIST]",
      "single_word": false,
      "lstrip": false,
      "rstrip": false,
      "normalized": false,
      "special": true
    },
    {
      "id": 127953,
      "content": "<TASK:SCHEMA2RULE>",
      "single_word": false,
      "lstrip": false,
      "rstrip": false,
      "normalized": false,
      "special": true
    },
    {
      "id": 127954,
      "content": "<SCHEMA>",
      "single_word": false,
      "lstrip": false,
      "rstrip": false,
      "normalized": false,
      "special": true
    },
    {
      "id": 127955,
      "content": "</SCHEMA>",
      "single_word": false,
      "lstrip": false,
      "rstrip": false,
      "normalized": false,
      "special": true
    },
    {
      "id": 127956,
      "content": "<ROLES>",
      "single_word": false,
      "lstrip": false,
      "rstrip": false,
      "normalized": false,
      "special": true
    },
    {
      "id": 127957,
      "content": "</ROLES>",
      "single_word": false,
      "lstrip": false,
      "rstrip": false,
      "normalized": false,
      "special": true
    },
    {
      "id": 127958,
      "content": "<TRACE>",
      "single_word": false,
      "lstrip": false,
      "rstrip": false,
      "normalized": false,
      "special": true
    },
    {
      "id": 127959,
      "content": "</TRACE>",
      "single_word": false,
      "lstrip": false,
      "rstrip": false,
      "normalized": false,
      "special": true
    },
    {
      "id": 127960,
      "content": "<RULE>",
      "single_word": false,
      "lstrip": false,
      "rstrip": false,
      "normalized": false,
      "special": true
    },
    {
      "id": 127961,
      "content": "</RULE>",
      "single_word": false,
      "lstrip": false,
      "rstrip": false,
      "normalized": false,
      "special": true
    },
    {
      "id": 127962,
      "content": "<OPCODE>",
      "single_word": false,
      "lstrip": false,
      "rstrip": false,
      "normalized": false,
      "special": true
    },
    {
      "id": 127963,
      "content": "</OPCODE>",
      "single_word": false,
      "lstrip": false,
      "rstrip": false,
      "normalized": false,
      "special": true
    },
    {
      "id": 127964,
      "content": "<VALID>",
      "single_word": false,
      "lstrip": false,
      "rstrip": false,
      "normalized": false,
      "special": true
    },
    {
      "id": 127965,
      "content": "</VALID>",
      "single_word": false,
      "lstrip": false,
      "rstrip": false,
      "normalized": false,
      "special": true
    },
    {
      "id": 127966,
      "content": "BIND_ROLE",
      "single_word": true,
      "lstrip": false,
      "rstrip": false,
      "normalized": false,
      "special": true
    },
    {
      "id": 127967,
      "content": "UNBIND_ROLE",
      "single_word": true,
      "lstrip": false,
      "rstrip": false,
      "normalized": false,
      "special": true
    },
    {
      "id": 127968,
      "content": "REBIND_ROLE",
      "single_word": true,
      "lstrip": false,
      "rstrip": false,
      "normalized": false,
      "special": true
    },
    {
      "id": 127969,
      "content": "MATCH",
      "single_word": true,
      "lstrip": false,
      "rstrip": false,
      "normalized": false,
      "special": true
    },
    {
      "id": 127970,
      "content": "PREDICT",
      "single_word": true,
      "lstrip": false,
      "rstrip": false,
      "normalized": false,
      "special": true
    },
    {
      "id": 127971,
      "content": "DISCOVER",
      "single_word": true,
      "lstrip": false,
      "rstrip": false,
      "normalized": false,
      "special": true
    },
    {
      "id": 127972,
      "content": "ANALOGY",
      "single_word": true,
      "lstrip": false,
      "rstrip": false,
      "normalized": false,
      "special": true
    },
    {
      "id": 127973,
      "content": "TEMPORAL_BIND",
      "single_word": true,
      "lstrip": false,
      "rstrip": false,
      "normalized": false,
      "special": true
    },
    {
      "id": 127974,
      "content": "UNIFY",
      "single_word": true,
      "lstrip": false,
      "rstrip": false,
      "normalized": false,
      "special": true
    },
    {
      "id": 127975,
      "content": "GROUP",
      "single_word": true,
      "lstrip": false,
      "rstrip": false,
      "normalized": false,
      "special": true
    },
    {
      "id": 127976,
      "content": "SORT",
      "single_word": true,
      "lstrip": false,
      "rstrip": false,
      "normalized": false,
      "special": true
    },
    {
      "id": 127977,
      "content": "JOIN",
      "single_word": true,
      "lstrip": false,
      "rstrip": false,
      "normalized": false,
      "special": true
    },
    {
      "id": 127978,
      "content": "MERGE",
      "single_word": true,
      "lstrip": false,
      "rstrip": false,
      "normalized": false,
      "special": true
    },
    {
      "id": 127979,
      "content": "SPLIT",
      "single_word": true,
      "lstrip": false,
      "rstrip": false,
      "normalized": false,
      "special": true
    },
    {
      "id": 127980,
      "content": "FILTER",
      "single_word": true,
      "lstrip": false,
      "rstrip": false,
      "normalized": false,
      "special": true
    },
    {
      "id": 127981,
      "content": "MAP_ROLES",
      "single_word": true,
      "lstrip": false,
      "rstrip": false,
      "normalized": false,
      "special": true
    },
    {
      "id": 127982,
      "content": "REDUCE",
      "single_word": true,
      "lstrip": false,
      "rstrip": false,
      "normalized": false,
      "special": true
    },
    {
      "id": 127983,
      "content": "INST",
      "single_word": true,
      "lstrip": false,
      "rstrip": false,
      "normalized": false,
      "special": true
    },
    {
      "id": 127984,
      "content": "NEWVAR",
      "single_word": true,
      "lstrip": false,
      "rstrip": false,
      "normalized": false,
      "special": true
    },
    {
      "id": 127985,
      "content": "SKIP",
      "single_word": true,
      "lstrip": false,
      "rstrip": false,
      "normalized": false,
      "special": true
    },
    {
      "id": 127986,
      "content": "BIND",
      "single_word": true,
      "lstrip": false,
      "rstrip": false,
      "normalized": false,
      "special": true
    },
    {
      "id": 127987,
      "content": "UNBIND",
      "single_word": true,
      "lstrip": false,
      "rstrip": false,
      "normalized": false,
      "special": true
    },
    {
      "id": 127988,
      "content": "QUERY",
      "single_word": true,
      "lstrip": false,
      "rstrip": false,
      "normalized": false,
      "special": true
    },
    {
      "id": 127989,
      "content": "AGENT",
      "single_word": true,
      "lstrip": false,
      "rstrip": false,
      "normalized": false,
      "special": true
    },
    {
      "id": 127990,
      "content": "OBJECT",
      "single_word": true,
      "lstrip": false,
      "rstrip": false,
      "normalized": false,
      "special": true
    },
    {
      "id": 127991,
      "content": "QUANTITY",
      "single_word": true,
      "lstrip": false,
      "rstrip": false,
      "normalized": false,
      "special": true
    },
    {
      "id": 127992,
      "content": "SOURCE",
      "single_word": true,
      "lstrip": false,
      "rstrip": false,
      "normalized": false,
      "special": true
    },
    {
      "id": 127993,
      "content": "DESTINATION",
      "single_word": true,
      "lstrip": false,
      "rstrip": false,
      "normalized": false,
      "special": true
    },
    {
      "id": 127994,
      "content": "CONTEXT",
      "single_word": true,
      "lstrip": false,
      "rstrip": false,
      "normalized": false,
      "special": true
    },
    {
      "id": 127995,
      "content": "STATE",
      "single_word": true,
      "lstrip": false,
      "rstrip": false,
      "normalized": false,
      "special": true
    }
  ],
  "normalizer": {
    "type": "NFC"
  },
  "pre_tokenizer": {
    "type": "Sequence",
    "pretokenizers": [
      {
        "type": "Split",
        "pattern": {
          "String": "(?i:'s|'t|'re|'ve|'m|'ll|'d)|[^\\r\\n\\p{L}\\p{N}]?\\p{L}+|\\p{N}{1,3}| ?[^\\s\\p{L}\\p{N}]+[\\r\\n]*|\\s*[\\r\\n]+|\\s+(?!\\S)|\\s+"
        },
        "behavior": "Isolated",
        "invert": false
      },
      {
        "type": "ByteLevel",
        "add_prefix_space": false,
        "trim_offsets": true,
        "use_regex": false
      }
    ]
  },
  "post_processor": {
    "type": "ByteLevel",
    "add_prefix_space": true,
    "trim_offsets": false,
    "use_regex": true
  },
  "decoder": {
    "type": "ByteLevel",
    "add_prefix_space": true,
    "trim_offsets": true,
    "use_regex": true
  },
  "model": {
    "type": "BPE",
    "dropout": null,
    "unk_token": null,
    "continuing_subword_prefix": null,
    "end_of_word_suffix": null,
    "fuse_unk": false,
    "byte_fallback": false,
    "ignore_merges": false,
    "vocab": {
      "!": 0,
      "\"": 1,
      "#": 2,
      "$": 3,
      "%": 4,
      "&": 5,
      "'": 6,
      "(": 7,
      ")": 8,
      "*": 9,
      "+": 10,
      ",": 11,
      "-": 12,
      ".": 13,
      "/": 14,
      "0": 15,
      "1": 16,
      "2": 17,
      "3": 18,
      "4": 19,
      "5": 20,
      "6": 21,
      "7": 22,
      "8": 23,
      "9": 24,
      ":": 25,
      ";": 26,
      "<": 27,
      "=": 28,
      ">": 29,
      "?": 30,
      "@": 31,
      "A": 32,
      "B": 33,
      "C": 34,
      "D": 35,
      "E": 36,
      "F": 37,
      "G": 38,
      "H": 39,
      "I": 40,
      "J": 41,
      "K": 42,
      "L": 43,
      "M": 44,
      "N": 45,
      "O": 46,
      "P": 47,
      "Q": 48,
      "R": 49,
      "S": 50,
      "T": 51,
      "U": 52,
      "V": 53,
      "W": 54,
      "X": 55,
      "Y": 56,
      "Z": 57,
      "[": 58,
      "\\": 59,
      "]": 60,
      "^": 61,
      "_": 62,
      "`": 63,
      "a": 64,
      "b": 65,
      "c": 66,
      "d": 67,
      "e": 68,
      "f": 69,
      "g": 70,
      "h": 71,
      "i": 72,
      "j": 73,
      "k": 74,
      "l": 75,
      "m": 76,
      "n": 77,
      "o": 78,
      "p": 79,
      "q": 80,
      "r": 81,
      "s": 82,
      "t": 83,
      "u": 84,
      "v": 85,
      "w": 86,
      "x": 87,
      "y": 88,
      "z": 89,
      "{": 90,
      "|": 91,
      "}": 92,
      "~": 93,
      "¡": 94,
      "¢": 95,
      "£": 96,
      "¤": 97,
      "¥": 98,
      "¦": 99,
      "§": 100,
      "¨": 101,
      "©": 102,
      "ª": 103,
      "«": 104,
      "¬": 105,
      "®": 106,
      "¯": 107,
      "°": 108,
      "±": 109,
      "²": 110,
      "³": 111,
      "´": 112,
      "µ": 113,
      "¶": 114,
      "·": 115,
      "¸": 116,
      "¹": 117,
      "º": 118,
      "»": 119,
      "¼": 120,
      "½": 121,
      "¾": 122,
      "¿": 123,
      "À": 124,
      "Á": 125,
      "Â": 126,
      "Ã": 127,
      "Ä": 128,
      "Å": 129,
      "Æ": 130,
      "Ç": 131,
      "È": 132,
      "É": 133,
      "Ê": 134,
      "Ë": 135,
      "Ì": 136,
      "Í": 137,
      "Î": 138,
      "Ï": 139,
      "Ð": 140,
      "Ñ": 141,
      "Ò": 142,
      "Ó": 143,
      "Ô": 144,
      "Õ": 145,
      "Ö": 146,
      "×": 147,
      "Ø": 148,
      "Ù": 149,
      "Ú": 150,
      "Û": 151,
      "Ü": 152,
      "Ý": 153,
      "Þ": 154,
      "ß": 155,
      "à": 156,
      "á": 157,
      "â": 158,
      "ã": 159,
      "ä": 160,
      "å": 161,
      "æ": 162,
      "ç": 163,
      "è": 164,
      "é": 165,
      "ê": 166,
      "ë": 167,
      "ì": 168,
      "í": 169,
      "î": 170,
      "ï": 171,
      "ð": 172,
      "ñ": 173,
      "ò": 174,
      "ó": 175,
      "ô": 176,
      "õ": 177,
      "ö": 178,
      "÷": 179,
      "ø": 180,
      "ù": 181,
      "ú": 182,
      "û": 183,
      "ü": 184,
      "ý": 185,
      "þ": 186,
      "ÿ": 187,
      "Ā": 188,
      "ā": 189,
      "Ă": 190,
      "ă": 191,
      "Ą": 192,
      "ą": 193,
      "Ć": 194,
      "ć": 195,
      "Ĉ": 196,
      "ĉ": 197,
      "Ċ": 198,
      "ċ": 199,
      "Č": 200,
      "č": 201,
      "Ď": 202,
      "ď": 203,
      "Đ": 204,
      "đ": 205,
      "Ē": 206,
      "ē": 207,
      "Ĕ": 208,
      "ĕ": 209,
      "Ė": 210,
      "ė": 211,
      "Ę": 212,
      "ę": 213,
      "Ě": 214,
      "ě": 215,
      "Ĝ": 216,
      "ĝ": 217,
      "Ğ": 218,
      "ğ": 219,
      "Ġ": 220,
      "ġ": 221,
      "Ģ": 222,
      "ģ": 223,
      "Ĥ": 224,
      "ĥ": 225,
      "Ħ": 226,
      "ħ": 227,
      "Ĩ": 228,
      "ĩ": 229,
      "Ī": 230,
      "ī": 231,
      "Ĭ": 232,
      "ĭ": 233,
      "Į": 234,
      "į": 235,
      "İ": 236,
      "ı": 237,
      "Ĳ": 238,
      "ĳ": 239,
      "Ĵ": 240,
      "ĵ": 241,
      "Ķ": 242,
      "ķ": 243,
      "ĸ": 244,
      "Ĺ": 245,
      "ĺ": 246,
      "Ļ": 247,
      "ļ": 248,
      "Ľ": 249,
      "ľ": 250,
      "Ŀ": 251,
      "ŀ": 252,
      "Ł": 253,
      "ł": 254,
      "Ń": 255,
      "Ġt": 256,
      "Ġa": 257,
      "he": 258,
      "in": 259,
      "re": 260,
      "on": 261,
      "Ġthe": 262,
      "er": 263,
      "Ġs": 264,
      "en": 265,
      "at": 266,
      "Ġo": 267,
      "es": 268,
      "Ġc": 269,
      "an": 270,
      "is": 271,
      "Ġw": 272,
      "it": 273,
      "Ġp": 274,
      "Ġd": 275,
      "or": 276,
      "al": 277,
      "Ġf": 278,
      "ou": 279,
      "Ġb": 280,
      "Ġan": 281,
      "ed": 282,
      "ar": 283,
      "ing": 284,
      "Ġof": 285,
      "Ġm": 286,
      "Ġin": 287,
      "Ġl": 288,
      "Ġto": 289,
      "ic": 290,
      "ion": 291,
      "Ġand": 292,
      "as": 293,
      "¿½": 294,
      "ï¿½": 295,
      "om": 296,
      "čĊ": 297,
      "le": 298,
      "Ġh": 299,
      "ent": 300,
      "Ġth": 301,
      "Ġe": 302,
      "il": 303,
      "ro": 304,
      "Ġn": 305,
      "ct": 306,
      "st": 307,
      "ve": 308,
      "Ġre": 309,
      "ĠT": 310,
      "et": 311,
      "el": 312,
      "Ġg": 313,
      "ut": 314,
      "ol": 315,
      "ur": 316,
      "Ã©": 317,
      "ĠA": 318,
      "ĠS": 319,
      "us": 320,
      "Ġde": 321,
      "âĢ": 322,
      "im": 323,
      "id": 324,
      "un": 325,
      "ĠI": 326,
      "Ġis": 327,
      "ot": 328,
      "ce": 329,
      "ation": 330,
      "ly": 331,
      "ra": 332,
      "ĠĠ": 333,
      "Ġbe": 334,
      "ĠC": 335,
      "ig": 336,
      "ch": 337,
      "ow": 338,
      "Ġfor": 339,
      "Ġon": 340,
      "ver": 341,
      "Ġy": 342,
      "am": 343,
      "Ġthat": 344,
      "ad": 345,
      "ir": 346,
      "qu": 347,
      "ï¿½ï¿½": 348,
      "Ġst": 349,
      "ay": 350,
      "ĠM": 351,
      "ul": 352,
      "NN": 353,
      "se": 354,
      "ith": 355,
      "Ġ1": 356,
      "ĠP": 357,
      "ĠThe": 358,
      "est": 359,
      "her": 360,
      "Ġas": 361,
      "Ġcon": 362,
      "ĠB": 363,
      "Ġ(": 364,
      "Ġit": 365,
      "Ġyou": 366,
      "if": 367,
      "Ġwith": 368,
      "Ġwh": 369,
      "ment": 370,
      "ter": 371,
      "Ġal": 372,
      "Ġpro": 373,
      "ge": 374,
      "ri": 375,
      "od": 376,
      "and": 377,
      "ist": 378,
      "Ġv": 379,
      "ant": 380,
      "Ġhe": 381,
      "ĠH": 382,
      "Ġcom": 383,
      "res": 384,
      "ĠL": 385,
      "ill": 386,
      "Ġare": 387,
      "ers": 388,
      "ĠW": 389,
      "AA": 390,
      "ab": 391,
      "ĠD": 392,
      "Ġle": 393,
      "th": 394,
      "um": 395,
      "Ġor": 396,
      "ess": 397,
      "ac": 398,
      "TT": 399,
      "op": 400,
      "Ġun": 401,
      "ĠF": 402,
      "os": 403,
      "Ġwe": 404,
      "ĠR": 405,
      "ate": 406,
      "ain": 407,
      "Ġex": 408,
      "ld": 409,
      "Ġ2": 410,
      "em": 411,
      "Ġr": 412,
      "ĠE": 413,
      "Ġen": 414,
      "pp": 415,
      "ore": 416,
      "Ġse": 417,
      "Ġwas": 418,
      "Ġat": 419,
      "rom": 420,
      "ke": 421,
      "Ġsu": 422,
      "ity": 423,
      "âĢĻ": 424,
      "igh": 425,
      "ĠG": 426,
      "ive": 427,
      "oun": 428,
      "ĠN": 429,
      "ort": 430,
      "ect": 431,
      "Ġby": 432,
      "our": 433,
      "Ġha": 434,
      "art": 435,
      "ci": 436,
      "iv": 437,
      "Ġne": 438,
      "Ġch": 439,
      "ud": 440,
      "ie": 441,
      "NNNN": 442,
      "Ġnot": 443,
      "ure": 444,
      "ies": 445,
      "ren": 446,
      "ĠĠĠĠ": 447,
      "Ġfrom": 448,
      "Ġla": 449,
      "Ġ\"": 450,
      "00": 451,
      "ans": 452,
      "'s": 453,
      "te": 454,
      "Ġsh": 455,
      "Ġus": 456,
      "Ġcan": 457,
      "ag": 458,
      "ĠJ": 459,
      "ĠâĢ": 460,
      "Ġqu": 461,
      "Ġhave": 462,
      "ould": 463,
      "ĠO": 464,
      "all": 465,
      "ich": 466,
      "ight": 467,
      "Ġ-": 468,
      "pt": 469,
      "Ġpl": 470,
      "ust": 471,
      "ĠIn": 472,
      "CA": 473,
      "TG": 474,
      "Ġthis": 475,
      "pe": 476,
      "og": 477,
      "ard": 478,
      "ine": 479,
      "red": 480,
      "oc": 481,
      "ell": 482,
      "out": 483,
      "ions": 484,
      "pl": 485,
      "ical": 486,
      "gh": 487,
      "Ġab": 488,
      "Ġk": 489,
      "ome": 490,
      "ff": 491,
      "ost": 492,
      "Ġj": 493,
      "per": 494,
      "ous": 495,
      "end": 496,
      "Ġwor": 497,
      "Ġet": 498,
      "age": 499,
      "ĠÃ": 500,
      "ast": 501,
      "ak": 502,
      "ide": 503,
      "Ġim": 504,
      "Ġso": 505,
      "ough": 506,
      "act": 507,
      "hen": 508,
      "ear": 509,
      "ther": 510,
      "Ġdes": 511,
      "up": 512,
      "Ġall": 513,
      "Ġcomp": 514,
      "ĠU": 515,
      "ated": 516,
      "Ġwhich": 517,
      "Ġtheir": 518,
      "Ġhis": 519,
      "ĠTh": 520,
      "Ġthey": 521,
      "cc": 522,
      "der": 523,
      "ire": 524,
      "ong": 525,
      "du": 526,
      "iz": 527,
      "CC": 528,
      "ib": 529,
      "ru": 530,
      "Ġar": 531,
      "Ġme": 532,
      "ne": 533,
      "ound": 534,
      "Ġyour": 535,
      "Ġwill": 536,
      "01": 537,
      "Ġad": 538,
      "Ġdo": 539,
      "ally": 540,
      "ance": 541,
      "Ġbut": 542,
      "so": 543,
      "ult": 544,
      "ap": 545,
      "ass": 546,
      "ations": 547,
      "ok": 548,
      "orm": 549,
      "cl": 550,
      "ĠÃł": 551,
      "ia": 552,
      "Ġsa": 553,
      "Ġcont": 554,
      "--": 555,
      "Ġint": 556,
      "ry": 557,
      "ary": 558,
      "Ġcl": 559,
      "Ġhas": 560,
      "ind": 561,
      "able": 562,
      "ack": 563,
      "ence": 564,
      "ice": 565,
      "Ġgo": 566,
      "GG": 567,
      "ction": 568,
      "TA": 569,
      "ĠK": 570,
      "Ġ19": 571,
      "ber": 572,
      "ue": 573,
      "Ġmore": 574,
      "ip": 575,
      "Ġres": 576,
      "Ġman": 577,
      "Ġdis": 578,
      "vel": 579,
      "\\\"": 580,
      "ach": 581,
      "ign": 582,
      "Ġest": 583,
      "av": 584,
      "Ġone": 585,
      "..": 586,
      "con": 587,
      "Ġper": 588,
      "ep": 589,
      "âĢĿ": 590,
      "one": 591,
      "ial": 592,
      "ame": 593,
      "ite": 594,
      "Ġcomm": 595,
      "ub": 596,
      "Ġout": 597,
      "Ġwere": 598,
      "Ġhad": 599,
      "ime": 600,
      "ens": 601,
      "Ġapp": 602,
      "ose": 603,
      "Ã¨": 604,
      "ĠV": 605,
      "Ġpart": 606,
      "NNNNNNNN": 607,
      "Ġ3": 608,
      "are": 609,
      "Ġsp": 610,
      "ord": 611,
      "ace": 612,
      "ress": 613,
      "ake": 614,
      "Ġte": 615,
      "int": 616,
      "Ġup": 617,
      "very": 618,
      "Ġother": 619,
      "ors": 620,
      "ition": 621,
      "reat": 622,
      "fe": 623,
      "ĠSt": 624,
      "ks": 625,
      "ang": 626,
      "Ġwho": 627,
      "Ġimp": 628,
      "Ġpe": 629,
      "ĠâĢľ": 630,
      "ĠIt": 631,
      "ĠCh": 632,
      "ents": 633,
      "ase": 634,
      "ĠY": 635,
      "ĠAn": 636,
      "Ġabout": 637,
      "rent": 638,
      "ces": 639,
      "ook": 640,
      "ric": 641,
      "Ġthem": 642,
      "iqu": 643,
      "ile": 644,
      "form": 645,
      ").": 646,
      "ild": 647,
      "Ġalso": 648,
      "Ġpre": 649,
      "ount": 650,
      "aus": 651,
      "ish": 652,
      "Ġev": 653,
      "now": 654,
      "ree": 655,
      "rit": 656,
      "ory": 657,
      "ï¿½ï¿½ï¿½": 658,
      "Ġits": 659,
      "ph": 660,
      "ays": 661,
      "Ġdu": 662,
      "ater": 663,
      "Ġli": 664,
      "vers": 665,
      "ew": 666,
      "TC": 667,
      "ail": 668,
      "Ġag": 669,
      "Ġbeen": 670,
      "Ġthere": 671,
      "Ġtra": 672,
      "Ġwould": 673,
      "ood": 674,
      "Ġpr": 675,
      "Ġ|": 676,
      "Ġsome": 677,
      "ont": 678,
      "de": 679,
      "Ġro": 680,
      "Ġtr": 681,
      "Ġwhen": 682,
      "here": 683,
      "Ġpar": 684,
      "ll": 685,
      "ian": 686,
      "oll": 687,
      "),": 688,
      "ings": 689,
      "Ġthan": 690,
      "ĠThis": 691,
      "Ġinto": 692,
      "Ġtime": 693,
      "GA": 694,
      "Ġbec": 695,
      "Ġsy": 696,
      "Ġif": 697,
      "Ġyear": 698,
      "ĠHe": 699,
      "Ġgr": 700,
      "erv": 701,
      "mer": 702,
      "Ġno": 703,
      "Ġover": 704,
      "ise": 705,
      ".\\": 706,
      "Ġtw": 707,
      "ely": 708,
      "ys": 709,
      "Ġra": 710,
      "Ġher": 711,
      "the": 712,
      "Ġles": 713,
      "Ġhow": 714,
      "che": 715,
      "we": 716,
      "ons": 717,
      "Ġam": 718,
      "ple": 719,
      "au": 720,
      "ments": 721,
      "ates": 722,
      "ob": 723,
      "Ġany": 724,
      "ove": 725,
      "ople": 726,
      "irst": 727,
      "Ġstud": 728,
      "Ġsur": 729,
      "Ġ4": 730,
      "Ġwork": 731,
      "ĠĠĠĠĠĠĠĠ": 732,
      "olog": 733,
      "Ġacc": 734,
      "les": 735,
      "erm": 736,
      "Ġdif": 737,
      "Ġcons": 738,
      "ov": 739,
      "iss": 740,
      "ath": 741,
      "Ġspe": 742,
      "Ġ201": 743,
      "Ġknow": 744,
      "Ġwhat": 745,
      "lic": 746,
      "ĠÃ©": 747,
      "Ġoff": 748,
      "me": 749,
      "Ġrec": 750,
      "Ġour": 751,
      "rough": 752,
      "Ġact": 753,
      "Ġmay": 754,
      "ning": 755,
      "Ġnew": 756,
      "ck": 757,
      "ject": 758,
      "old": 759,
      "row": 760,
      "fter": 761,
      "ual": 762,
      "Ġbet": 763,
      "Ġpo": 764,
      "cre": 765,
      "Ġbl": 766,
      "The": 767,
      "Ġunder": 768,
      "ause": 769,
      "Ġrep": 770,
      "Ġsaid": 771,
      "lect": 772,
      "ale": 773,
      "clud": 774,
      "ific": 775,
      "Ġpeople": 776,
      "Ġinter": 777,
      "Ġlike": 778,
      "Ġ5": 779,
      "19": 780,
      "ert": 781,
      "Ġthese": 782,
      "ark": 783,
      "ond": 784,
      "Ġind": 785,
      "Ġrel": 786,
      "ble": 787,
      "eth": 788,
      "Ġfl": 789,
      "ink": 790,
      "own": 791,
      "Ã©e": 792,
      "ari": 793,
      "xt": 794,
      "Ġtwo": 795,
      "Ġfirst": 796,
      "'t": 797,
      "ĠUn": 798,
      "cial": 799,
      "Ġmy": 800,
      "Ġonly": 801,
      "Ġfe": 802,
      "Ġneed": 803,
      "cess": 804,
      "stem": 805,
      "ram": 806,
      "ier": 807,
      "Ġexp": 808,
      "ĠRe": 809,
      "ique": 810,
      "oss": 811,
      "ĠEn": 812,
      "Ġuse": 813,
      "ced": 814,
      "rib": 815,
      "oy": 816,
      "Ġmost": 817,
      "ics": 818,
      "ative": 819,
      "ities": 820,
      "Ġem": 821,
      "Ġco": 822,
      "Ġau": 823,
      "ĠWh": 824,
      "Ġprov": 825,
      "ran": 826,
      "ft": 827,
      "Ġsuch": 828,
      "ational": 829,
      "Ġshe": 830,
      "Ġph": 831,
      "Ġhim": 832,
      "Ã¤": 833,
      "ating": 834,
      "Ġob": 835,
      "ade": 836,
      "ful": 837,
      "ied": 838,
      "oth": 839,
      "Ġgen": 840,
      "Ġget": 841,
      "ins": 842,
      "Ġcould": 843,
      "Ġatt": 844,
      "Ġune": 845,
      "ick": 846,
      "Ġsc": 847,
      "Ġeff": 848,
      "Ġdans": 849,
      "ĠLe": 850,
      "Ġinclud": 851,
      "ident": 852,
      "ular": 853,
      "AAA": 854,
      "fore": 855,
      "itt": 856,
      "Ġform": 857,
      "velop": 858,
      "Ġjust": 859,
      ".\"": 860,
      "Ġthrough": 861,
      "lp": 862,
      "als": 863,
      "Ġrem": 864,
      "elf": 865,
      "Ã©s": 866,
      "Ġprodu": 867,
      "Ġnum": 868,
      "wn": 869,
      "Ġwhere": 870,
      "its": 871,
      "Ġreg": 872,
      "20": 873,
      "ower": 874,
      "Ġshould": 875,
      "Ġ$": 876,
      "ures": 877,
      "ĠAs": 878,
      "Ġent": 879,
      "ĠÂ": 880,
      "ution": 881,
      "ility": 882,
      "Ġ\\\"": 883,
      "Ġcol": 884,
      "hed": 885,
      "ible": 886,
      "Ġinv": 887,
      "Ġadd": 888,
      "Ġhelp": 889,
      "Ġmod": 890,
      "urn": 891,
      "Ġdiffe": 892,
      "Ġsub": 893,
      "cy": 894,
      "Ġafter": 895,
      "Ġmany": 896,
      "ien": 897,
      "uch": 898,
      "Ġ.": 899,
      "Ġthen": 900,
      "ĠWe": 901,
      "ract": 902,
      "uring": 903,
      "Ġpres": 904,
      "ife": 905,
      "Ġpol": 906,
      "NNNNNNNNNNNNNNNN": 907,
      "ict": 908,
      "ten": 909,
      "ata": 910,
      "ool": 911,
      "Ġ6": 912,
      "Ġac": 913,
      "Ġ200": 914,
      "ait": 915,
      "Ġ18": 916,
      "Ġfun": 917,
      "alth": 918,
      "ased": 919,
      "10": 920,
      "com": 921,
      "ĠAl": 922,
      "Ġused": 923,
      "ĠdÃ©": 924,
      "ern": 925,
      "18": 926,
      "arch": 927,
      "Ġsupp": 928,
      "ious": 929,
      "Ġpers": 930,
      "ient": 931,
      "ween": 932,
      "ĠĠĠ": 933,
      "ants": 934,
      "Ġwell": 935,
      "gan": 936,
      "Ġmake": 937,
      "ts": 938,
      "Ġtrans": 939,
      "Ġsee": 940,
      "Ġsystem": 941,
      "ix": 942,
      "Ġsm": 943,
      "uss": 944,
      "Ġ=": 945,
      "Ġma": 946,
      "Ġ:": 947,
      "GC": 948,
      "of": 949,
      "Ġcommun": 950,
      "Ġlong": 951,
      "Ġcar": 952,
      "ily": 953,
      "ĠSe": 954,
      "ues": 955,
      "ĠDe": 956,
      "**": 957,
      "other": 958,
      "land": 959,
      "ĠCom": 960,
      "ĠIf": 961,
      "Ġchild": 962,
      "be": 963,
      "ange": 964,
      "Ġyears": 965,
      "Ġsim": 966,
      "Ġbetween": 967,
      "ps": 968,
      "ines": 969,
      "ollow": 970,
      "arg": 971,
      "cept": 972,
      "ï¿½ï¿½ï¿½ï¿½": 973,
      "Ġinst": 974,
      "Ġbu": 975,
      "ages": 976,
      "iew": 977,
      "ros": 978,
      "Ġset": 979,
      "ds": 980,
      "iel": 981,
      "Ġdi": 982,
      "Ġass": 983,
      "Ġaut": 984,
      "ty": 985,
      "12": 986,
      "pr": 987,
      "urs": 988,
      "Ġvery": 989,
      "Ġdevelop": 990,
      "Ġinf": 991,
      "ĠâĢĵ": 992,
      "ward": 993,
      "Ġeven": 994,
      "ock": 995,
      "Ġway": 996,
      "Ġevery": 997,
      "45": 998,
      "Ġav": 999,
      "16": 1000,
      "15": 1001,
      "ited": 1002,
      "Ġke": 1003,
      "Ġback": 1004,
      "ism": 1005,
      "Ġ\\": 1006,
      "tern": 1007,
      "17": 1008,
      "Ġdist": 1009,
      "Ġmon": 1010,
      "Ġbecause": 1011,
      "13": 1012,
      "ature": 1013,
      "ting": 1014,
      "ven": 1015,
      "Ġhigh": 1016,
      "ĠFor": 1017,
      "46": 1018,
      "ĠPro": 1019,
      "43": 1020,
      "aking": 1021,
      "ork": 1022,
      "Ġear": 1023,
      "40": 1024,
      "Ġcent": 1025,
      "Ġ'": 1026,
      "Ġsign": 1027,
      "ever": 1028,
      "led": 1029,
      "Ġbel": 1030,
      "Ġpoint": 1031,
      "any": 1032,
      "Ġval": 1033,
      "Ġeach": 1034,
      "Ġ[": 1035,
      "48": 1036,
      "Ġpour": 1037,
      "TAA": 1038,
      "day": 1039,
      "Ġ7": 1040,
      "Ġqui": 1041,
      "Ġque": 1042,
      "chool": 1043,
      "Ġmin": 1044,
      "meric": 1045,
      "Ġagain": 1046,
      "Ġimport": 1047,
      "ruct": 1048,
      "ille": 1049,
      "Ġmat": 1050,
      "vent": 1051,
      "Ġfin": 1052,
      "...": 1053,
      "Ġlook": 1054,
      "chn": 1055,
      "Ġresp": 1056,
      "Ġdet": 1057,
      "Ġbeing": 1058,
      "uc": 1059,
      "Ġcall": 1060,
      "Ġche": 1061,
      "Ġdifferent": 1062,
      "ives": 1063,
      "Ġpub": 1064,
      "47": 1065,
      "Ġfollow": 1066,
      "42": 1067,
      "ĠBut": 1068,
      "Ġthose": 1069,
      "ĠAr": 1070,
      "arm": 1071,
      "cent": 1072,
      "Ġexam": 1073,
      "Ġcor": 1074,
      "Ġgreat": 1075,
      "Ġexper": 1076,
      "to": 1077,
      "Ġgener": 1078,
      "Ġmuch": 1079,
      "Ġdid": 1080,
      "ave": 1081,
      "Ġnow": 1082,
      "ĠYou": 1083,
      "ather": 1084,
      "ince": 1085,
      "Ġdon": 1086,
      ".âĢĿ": 1087,
      "Ġcount": 1088,
      "Ġfam": 1089,
      "ĠAnd": 1090,
      "49": 1091,
      "ĠNew": 1092,
      "Ġ10": 1093,
      "Ġ8": 1094,
      "Ġpa": 1095,
      "Ġvari": 1096,
      "Ġmade": 1097,
      "gy": 1098,
      "Ġty": 1099,
      "Ġgra": 1100,
      "ĠHow": 1101,
      "ets": 1102,
      "Ġown": 1103,
      "Ġsame": 1104,
      "Ġdep": 1105,
      "TCA": 1106,
      "imes": 1107,
      "li": 1108,
      "Ġgood": 1109,
      "Ġ0": 1110,
      "Ġext": 1111,
      "ually": 1112,
      "Ġdown": 1113,
      "Ġed": 1114,
      "ann": 1115,
      "Ġart": 1116,
      "Ġbefore": 1117,
      "ĠrÃ©": 1118,
      "ural": 1119,
      "riv": 1120,
      "Ġread": 1121,
      "Ġright": 1122,
      "Ġret": 1123,
      "Ġsol": 1124,
      "Ġprog": 1125,
      "âĢĶ": 1126,
      "ah": 1127,
      "Ġdef": 1128,
      "ex": 1129,
      "Ġdoes": 1130,
      "formation": 1131,
      "TGA": 1132,
      "----": 1133,
      "gg": 1134,
      "io": 1135,
      "ness": 1136,
      "ivers": 1137,
      "Ġperson": 1138,
      "ĠAmeric": 1139,
      "Ġworld": 1140,
      "Ġdata": 1141,
      "Ġfound": 1142,
      "rest": 1143,
      "oh": 1144,
      "blem": 1145,
      "TTTT": 1146,
      "Ġstr": 1147,
      "read": 1148,
      "Ġins": 1149,
      "hip": 1150,
      "Ġlear": 1151,
      "50": 1152,
      "Ġpartic": 1153,
      "ĠLa": 1154,
      "Ġfact": 1155,
      "ists": 1156,
      "Ġgu": 1157,
      "In": 1158,
      "ars": 1159,
      "ology": 1160,
      "Ġinte": 1161,
      "ĠThey": 1162,
      "Ġfind": 1163,
      "ically": 1164,
      "Ġhand": 1165,
      "Ġdisc": 1166,
      "ux": 1167,
      "30": 1168,
      "22": 1169,
      "Ġcour": 1170,
      "Ġshow": 1171,
      "Ġcur": 1172,
      "Ġbr": 1173,
      "Ġwater": 1174,
      "Ġ20": 1175,
      "Ġlead": 1176,
      "Ġend": 1177,
      "Ġeffect": 1178,
      "Ġnumber": 1179,
      "ize": 1180,
      "ices": 1181,
      "Ġ9": 1182,
      "\":": 1183,
      "Ġlife": 1184,
      "ton": 1185,
      "Ġdec": 1186,
      "Ġresult": 1187,
      ",\"": 1188,
      "ene": 1189,
      "ined": 1190,
      ".,": 1191,
      "ral": 1192,
      "Ġprocess": 1193,
      "Ġcomple": 1194,
      "Ġequ": 1195,
      "Ġplay": 1196,
      "201": 1197,
      "Ġserv": 1198,
      "Ġexpl": 1199,
      "rop": 1200,
      "vern": 1201,
      "els": 1202,
      "Ġ,": 1203,
      "Ġsl": 1204,
      "Ġrequ": 1205,
      "way": 1206,
      "Ġson": 1207,
      "ner": 1208,
      "ute": 1209,
      "Ġmed": 1210,
      "Ġhum": 1211,
      "ĠThere": 1212,
      "Ġloc": 1213,
      "ĠSo": 1214,
      "une": 1215,
      "ash": 1216,
      "Ġwant": 1217,
      "\",": 1218,
      "Ġhealth": 1219,
      "Ġwhile": 1220,
      "ull": 1221,
      "ody": 1222,
      "ized": 1223,
      "Ġgrou": 1224,
      "stand": 1225,
      "Ġboth": 1226,
      "Ġser": 1227,
      "Ġthink": 1228,
      "ved": 1229,
      "que": 1230,
      "Ġposs": 1231,
      "Ġop": 1232,
      "ety": 1233,
      "Ġconst": 1234,
      "Ġref": 1235,
      "Ġproblem": 1236,
      "man": 1237,
      "Ġpat": 1238,
      "Ġthough": 1239,
      "Ġdire": 1240,
      "000": 1241,
      "Ġconf": 1242,
      "25": 1243,
      "Ġstate": 1244,
      "Ġclass": 1245,
      "Ġtake": 1246,
      "Ġday": 1247,
      "Ġgl": 1248,
      "Ġcre": 1249,
      "Ġmem": 1250,
      "Ġusing": 1251,
      "ug": 1252,
      "Ġincre": 1253,
      "Ġstart": 1254,
      "__": 1255,
      "amp": 1256,
      "ving": 1257,
      "Ã¨re": 1258,
      "arge": 1259,
      "tt": 1260,
      "ron": 1261,
      "ĠBe": 1262,
      "ains": 1263,
      "air": 1264,
      "Ġtechn": 1265,
      "ĠQ": 1266,
      "Ġel": 1267,
      "Ġthree": 1268,
      "cond": 1269,
      "Ġsk": 1270,
      "ouse": 1271,
      "iron": 1272,
      "ves": 1273,
      "ĠOn": 1274,
      "ases": 1275,
      "Ġmust": 1276,
      "Ġduring": 1277,
      "ax": 1278,
      "ters": 1279,
      "ais": 1280,
      "TCC": 1281,
      ",âĢĿ": 1282,
      "Ġrese": 1283,
      "get": 1284,
      "ision": 1285,
      "23": 1286,
      "TTA": 1287,
      "Ġimportant": 1288,
      "GAA": 1289,
      "Ġsom": 1290,
      "Ġpass": 1291,
      "eng": 1292,
      "Ġquest": 1293,
      "27": 1294,
      "99": 1295,
      "Ġbo": 1296,
      "ration": 1297,
      "Ġpop": 1298,
      "cul": 1299,
      "ross": 1300,
      "hes": 1301,
      "ared": 1302,
      "Ġhist": 1303,
      "ason": 1304,
      "Ġstudents": 1305,
      "ats": 1306,
      "ĠAd": 1307,
      "ished": 1308,
      "ality": 1309,
      "Ġplus": 1310,
      "ĠSh": 1311,
      "Ġce": 1312,
      "orn": 1313,
      "Ġmain": 1314,
      "az": 1315,
      "gl": 1316,
      "ption": 1317,
      "26": 1318,
      "ĠCon": 1319,
      "dition": 1320,
      "ivid": 1321,
      "lement": 1322,
      "rence": 1323,
      "ense": 1324,
      "att": 1325,
      "alk": 1326,
      "ected": 1327,
      "Ġinformation": 1328,
      "ĠÃ©t": 1329,
      "ai": 1330,
      "80": 1331,
      "ĠZ": 1332,
      "Ġstill": 1333,
      "Ġschool": 1334,
      "Ġsmall": 1335,
      "Ġtest": 1336,
      "Ġsit": 1337,
      "ital": 1338,
      "ank": 1339,
      "ides": 1340,
      "Ġless": 1341,
      "cont": 1342,
      "Ġlast": 1343,
      "Ġcontin": 1344,
      "akes": 1345,
      "iness": 1346,
      "Ġmight": 1347,
      "port": 1348,
      "ĠCl": 1349,
      "ider": 1350,
      "Ġprogram": 1351,
      "ertain": 1352,
      "Ġpower": 1353,
      "90": 1354,
      "Ġ{": 1355,
      "ĠTr": 1356,
      "37": 1357,
      "Ã©t": 1358,
      "Ġgrow": 1359,
      "aut": 1360,
      "Ġcle": 1361,
      "60": 1362,
      "Ġsay": 1363,
      "Ġfil": 1364,
      "Ġplace": 1365,
      "Ãª": 1366,
      "bers": 1367,
      "Ġes": 1368,
      "ĠIs": 1369,
      "Ġterm": 1370,
      "28": 1371,
      "Ġpos": 1372,
      "itÃ©": 1373,
      "11": 1374,
      "Ġhere": 1375,
      "ĠEx": 1376,
      "Ġaround": 1377,
      "Ġchildren": 1378,
      "ethod": 1379,
      "Ġprot": 1380,
      "ĠWhat": 1381,
      "âĢĵ": 1382,
      "itions": 1383,
      "pos": 1384,
      "rol": 1385,
      "Ġprof": 1386,
      "Ġadv": 1387,
      "Ġsupport": 1388,
      "Ġocc": 1389,
      "Ġmus": 1390,
      "raph": 1391,
      "Ġlevel": 1392,
      "ode": 1393,
      "Ġmet": 1394,
      "29": 1395,
      "Ġaff": 1396,
      "iven": 1397,
      "33": 1398,
      "ury": 1399,
      "Ġcr": 1400,
      "Ġwrit": 1401,
      "ĠInd": 1402,
      "omen": 1403,
      "gr": 1404,
      "Ġappro": 1405,
      "ional": 1406,
      "inal": 1407,
      "ittle": 1408,
      "Ġplan": 1409,
      "Ġcare": 1410,
      "Ġwithout": 1411,
      "viron": 1412,
      "Ġrest": 1413,
      "Ġorgan": 1414,
      "Ġcap": 1415,
      "Ġz": 1416,
      "Ġ&": 1417,
      "Ã¨s": 1418,
      "Ġvis": 1419,
      "Ġdem": 1420,
      "ands": 1421,
      "ted": 1422,
      "ek": 1423,
      "ĠPh": 1424,
      "ik": 1425,
      "ield": 1426,
      "Ġsci": 1427,
      "Ġreport": 1428,
      "vec": 1429,
      "par": 1430,
      "Ġ_": 1431,
      "Ġunderstand": 1432,
      "Ġdesign": 1433,
      "CAA": 1434,
      "CTG": 1435,
      "ĠWhen": 1436,
      "Ġtem": 1437,
      "Ġincluding": 1438,
      "conom": 1439,
      "Ġou": 1440,
      "ote": 1441,
      "ator": 1442,
      "Ġbest": 1443,
      "Ġpublic": 1444,
      "ina": 1445,
      "co": 1446,
      "Ġmark": 1447,
      "ired": 1448,
      "ĠTo": 1449,
      "ization": 1450,
      "44": 1451,
      "outh": 1452,
      "mat": 1453,
      "38": 1454,
      "97": 1455,
      "yn": 1456,
      "less": 1457,
      "mb": 1458,
      "Ġdirect": 1459,
      "Ġ17": 1460,
      "Ġoften": 1461,
      "und": 1462,
      "65": 1463,
      "Ġgovern": 1464,
      "put": 1465,
      "Ġmen": 1466,
      "Ġcal": 1467,
      "35": 1468,
      "Ġve": 1469,
      "oot": 1470,
      "Ġanother": 1471,
      "95": 1472,
      "98": 1473,
      "aw": 1474,
      "Ġreal": 1475,
      "Ġexample": 1476,
      "Ġagainst": 1477,
      "Ġtoo": 1478,
      "Ġdev": 1479,
      "Ġlet": 1480,
      "ump": 1481,
      "rodu": 1482,
      "Ġiss": 1483,
      "Ġstudy": 1484,
      "Ġanal": 1485,
      "Ġpresent": 1486,
      "agn": 1487,
      "ways": 1488,
      "gen": 1489,
      "ulation": 1490,
      "Ġfew": 1491,
      "Ġsecond": 1492,
      "Ġhome": 1493,
      "ection": 1494,
      "Ġ15": 1495,
      "ential": 1496,
      "app": 1497,
      "Ġallow": 1498,
      "ability": 1499,
      "Ġbus": 1500,
      "cer": 1501,
      "min": 1502,
      "67": 1503,
      "Ġbook": 1504,
      "rie": 1505,
      "ames": 1506,
      "ER": 1507,
      "Ġavec": 1508,
      "ior": 1509,
      "ately": 1510,
      "Ġbeh": 1511,
      "ience": 1512,
      "eral": 1513,
      "Ġcalled": 1514,
      "view": 1515,
      "CTT": 1516,
      "Ġann": 1517,
      "Ġeas": 1518,
      "ained": 1519,
      "Ġide": 1520,
      ",\\": 1521,
      "Ġperform": 1522,
      "lu": 1523,
      "ois": 1524,
      "iversity": 1525,
      "ention": 1526,
      "Ġmethod": 1527,
      "Ġmill": 1528,
      "ĠPl": 1529,
      "ger": 1530,
      "Ġi": 1531,
      "rist": 1532,
      "Ġris": 1533,
      "ours": 1534,
      "itive": 1535,
      "Ġinterest": 1536,
      "line": 1537,
      "Ġmil": 1538,
      "Ġold": 1539,
      "ining": 1540,
      "Ġans": 1541,
      "Ġdesc": 1542,
      "hor": 1543,
      "Ġfood": 1544,
      "wh": 1545,
      "Ġbuild": 1546,
      "acter": 1547,
      "apt": 1548,
      "uro": 1549,
      "pect": 1550,
      "Ġpract": 1551,
      "Ġactiv": 1552,
      "Ġlittle": 1553,
      "ium": 1554,
      "Ġbas": 1555,
      "self": 1556,
      "ling": 1557,
      "ole": 1558,
      "Ġpost": 1559,
      "Ġdiff": 1560,
      "68": 1561,
      "Ġoper": 1562,
      "Ġhead": 1563,
      "orth": 1564,
      "ify": 1565,
      "Ġrun": 1566,
      "ĠAt": 1567,
      "aire": 1568,
      "ries": 1569,
      "iving": 1570,
      "ergy": 1571,
      "Ġspec": 1572,
      "sy": 1573,
      "Ġopp": 1574,
      "Ġchar": 1575,
      "Ġdel": 1576,
      "Ġhuman": 1577,
      "ccess": 1578,
      "Ġstand": 1579,
      "GTG": 1580,
      "Ġnon": 1581,
      "Th": 1582,
      "Ġelect": 1583,
      "Ġconn": 1584,
      "Ġtop": 1585,
      "icle": 1586,
      "Ġopen": 1587,
      "Ġbody": 1588,
      "Ġhapp": 1589,
      "soci": 1590,
      "iques": 1591,
      "ison": 1592,
      "ĠĠĠĠĠĠĠĠĠĠĠĠĠĠĠĠ": 1593,
      "CCA": 1594,
      "Ġfour": 1595,
      "Ġchange": 1596,
      "bs": 1597,
      "ards": 1598,
      "med": 1599,
      "Ġeng": 1600,
      "Ġproduct": 1601,
      "Ġinc": 1602,
      "Ġcome": 1603,
      "Ġbelie": 1604,
      "14": 1605,
      "Ġlarge": 1606,
      "Ġwithin": 1607,
      "by": 1608,
      "ĠSp": 1609,
      "oint": 1610,
      "Ġchang": 1611,
      "Ġthings": 1612,
      "Ġorder": 1613,
      "Ġwar": 1614,
      "ĠâĢĶ": 1615,
      "Ġlaw": 1616,
      "Ġil": 1617,
      "ified": 1618,
      "Ġcommon": 1619,
      "Ġbetter": 1620,
      "Ġseem": 1621,
      "ĠMar": 1622,
      "Ġpot": 1623,
      "GGA": 1624,
      "Ġvol": 1625,
      "ĠJan": 1626,
      "Ã©n": 1627,
      "ches": 1628,
      "ination": 1629,
      "ording": 1630,
      "Ġgoing": 1631,
      "Ġsince": 1632,
      "cies": 1633,
      "angu": 1634,
      "Ġmar": 1635,
      "87": 1636,
      "Ġknown": 1637,
      "Ġfollowing": 1638,
      "Ġlight": 1639,
      "Ġbre": 1640,
      "Ġput": 1641,
      "ething": 1642,
      "gin": 1643,
      "Ġcase": 1644,
      "ĠThese": 1645,
      "Ġresearch": 1646,
      "âĢľ": 1647,
      "ĠFr": 1648,
      "An": 1649,
      "for": 1650,
      "Ġfunction": 1651,
      "cing": 1652,
      "ission": 1653,
      "omm": 1654,
      "Ġkeep": 1655,
      "Ġline": 1656,
      "ohn": 1657,
      "ĠÂ»": 1658,
      "NNNNNNNNNNNNNNNNNNNNNNNNNNNNNNNN": 1659,
      "vironment": 1660,
      "ised": 1661,
      "Ġproject": 1662,
      "Ã©es": 1663,
      "use": 1664,
      "Ġpolit": 1665,
      "ĠAmerican": 1666,
      "Ġleg": 1667,
      "Ġ12": 1668,
      "96": 1669,
      "resent": 1670,
      "ried": 1671,
      "36": 1672,
      "ians": 1673,
      "Ġ*": 1674,
      "ĠÂ«": 1675,
      "ec": 1676,
      "Ġproper": 1677,
      "Ġtreat": 1678,
      "ividual": 1679,
      "jor": 1680,
      "ided": 1681,
      "iod": 1682,
      "Ġfeel": 1683,
      "Ã§": 1684,
      "ived": 1685,
      "ids": 1686,
      "ĠRes": 1687,
      "Ġlearn": 1688,
      "Ġmult": 1689,
      "not": 1690,
      "Ġcell": 1691,
      "Ġlo": 1692,
      "ĠCol": 1693,
      "ĠShe": 1694,
      "ograph": 1695,
      "ms": 1696,
      "70": 1697,
      "br": 1698,
      "EA": 1699,
      "Ġair": 1700,
      "ends": 1701,
      "'re": 1702,
      "\\\":": 1703,
      "85": 1704,
      "Ġmean": 1705,
      "Ġnever": 1706,
      "Ġredu": 1707,
      "Ġcertain": 1708,
      "Ġphys": 1709,
      "Ġlist": 1710,
      "Ġbro": 1711,
      "ource": 1712,
      "Ġer": 1713,
      "Ġident": 1714,
      "ĠTe": 1715,
      "ĠAll": 1716,
      "GTT": 1717,
      "Ġsitu": 1718,
      "41": 1719,
      "bre": 1720,
      "ples": 1721,
      "Ġpur": 1722,
      "GCA": 1723,
      "Ġdra": 1724,
      "ering": 1725,
      "cle": 1726,
      "Ġgroup": 1727,
      "Ġtyp": 1728,
      "Ġeduc": 1729,
      "hers": 1730,
      "enn": 1731,
      "elle": 1732,
      "ured": 1733,
      "ED": 1734,
      "Ġ<": 1735,
      "til": 1736,
      "ope": 1737,
      "cur": 1738,
      "veral": 1739,
      "21": 1740,
      "ploy": 1741,
      "Ġmeas": 1742,
      "Ġlim": 1743,
      "Ġorig": 1744,
      "Ġhy": 1745,
      "Ġturn": 1746,
      "ox": 1747,
      "ots": 1748,
      "ĠBl": 1749,
      "Ġfut": 1750,
      "93": 1751,
      "ances": 1752,
      "Ġprom": 1753,
      "ĠCan": 1754,
      "Ġsomething": 1755,
      "osed": 1756,
      "Ġask": 1757,
      "ently": 1758,
      "Ġgiven": 1759,
      "ably": 1760,
      "tre": 1761,
      "ĠHowever": 1762,
      "Ġstruct": 1763,
      "Ġmonth": 1764,
      "oms": 1765,
      "Ġimpro": 1766,
      "aterial": 1767,
      "thing": 1768,
      "Ġcurrent": 1769,
      "Ġmove": 1770,
      "Ġcult": 1771,
      "Ġsocial": 1772,
      "Ġ+": 1773,
      "inci": 1774,
      "Ġnear": 1775,
      "ources": 1776,
      "atic": 1777,
      "Ġinvest": 1778,
      "Ġâ": 1779,
      "//": 1780,
      "Ġhard": 1781,
      "Ġpossible": 1782,
      "ental": 1783,
      "Ġalways": 1784,
      "ĠâĢĺ": 1785,
      "nal": 1786,
      "\\\\": 1787,
      "por": 1788,
      "ctor": 1789,
      "75": 1790,
      "ĠThat": 1791,
      "ression": 1792,
      "oman": 1793,
      "ither": 1794,
      "Ġfamily": 1795,
      "Ġenc": 1796,
      "Ġleft": 1797,
      "Ã©r": 1798,
      "ott": 1799,
      "Ġteam": 1800,
      "ills": 1801,
      "Ġfore": 1802,
      "ĠComm": 1803,
      "ĠPar": 1804,
      "ĠJohn": 1805,
      "ĠOr": 1806,
      "eb": 1807,
      "Ġrece": 1808,
      "Ġ16": 1809,
      "Ġmeans": 1810,
      "ument": 1811,
      "Ġcountry": 1812,
      "Ġant": 1813,
      "88": 1814,
      "af": 1815,
      "Ġindividual": 1816,
      "ule": 1817,
      "Ġfre": 1818,
      "Ġbusiness": 1819,
      "ended": 1820,
      "Ġgovernment": 1821,
      "pro": 1822,
      "Ġx": 1823,
      "ley": 1824,
      "Ġvalue": 1825,
      "role": 1826,
      "rem": 1827,
      "ories": 1828,
      "ON": 1829,
      "Ġter": 1830,
      "ĠUniversity": 1831,
      "Ġnom": 1832,
      "Ġfr": 1833,
      "Ġsing": 1834,
      "Ġable": 1835,
      "Ġreally": 1836,
      "CB": 1837,
      "ird": 1838,
      "Ġcir": 1839,
      "Ġoffic": 1840,
      "content": 1841,
      "24": 1842,
      "atch": 1843,
      "Ġprob": 1844,
      "Ġtimes": 1845,
      "Ġcourse": 1846,
      "ĠX": 1847,
      "Ġname": 1848,
      "ĠCar": 1849,
      "Ġbecome": 1850,
      "GCC": 1851,
      "Ġtry": 1852,
      "Ġfac": 1853,
      "Ġdevelopment": 1854,
      "Ġcost": 1855,
      "Ġnext": 1856,
      "Ġarea": 1857,
      "Ġsays": 1858,
      "urope": 1859,
      "olution": 1860,
      "Ġgive": 1861,
      "Ġvers": 1862,
      "ĠGr": 1863,
      "Ġpas": 1864,
      "ead": 1865,
      "Ġsuccess": 1866,
      "work": 1867,
      "ray": 1868,
      "Ġparticular": 1869,
      "rain": 1870,
      "iter": 1871,
      "ma": 1872,
      "Ġwhe": 1873,
      "lection": 1874,
      "Ġeconom": 1875,
      "Ġtext": 1876,
      "IN": 1877,
      "Ġmov": 1878,
      "Ġobject": 1879,
      "Ġsw": 1880,
      "ng": 1881,
      "AC": 1882,
      "ember": 1883,
      "Ġnat": 1884,
      "Ġport": 1885,
      "idence": 1886,
      "Ġseveral": 1887,
      "alf": 1888,
      "sh": 1889,
      "Ġbased": 1890,
      "iste": 1891,
      "Ġinclude": 1892,
      "urther": 1893,
      "Ġwomen": 1894,
      "Ġquestion": 1895,
      "sel": 1896,
      "Ġcontrol": 1897,
      "ae": 1898,
      "Ġlik": 1899,
      "ĠâĢ¢": 1900,
      "ocus": 1901,
      "ĠUnited": 1902,
      "aken": 1903,
      "imate": 1904,
      "Ġlow": 1905,
      "Ġmajor": 1906,
      "Ġenergy": 1907,
      "86": 1908,
      "Ġcaus": 1909,
      "Ġview": 1910,
      "ales": 1911,
      "ume": 1912,
      "Ġinvol": 1913,
      "Ġtru": 1914,
      "Ġfree": 1915,
      "lished": 1916,
      "Ġfar": 1917,
      "Ġprovide": 1918,
      "son": 1919,
      "Ġearly": 1920,
      "Ġess": 1921,
      "part": 1922,
      "Ġcomb": 1923,
      "Ġpercent": 1924,
      "Ġothers": 1925,
      "ones": 1926,
      "cri": 1927,
      "Ġaway": 1928,
      "ipp": 1929,
      "oney": 1930,
      "Ġbene": 1931,
      "Ġconsider": 1932,
      "77": 1933,
      "Ġuntil": 1934,
      "55": 1935,
      "ĠBy": 1936,
      "val": 1937,
      "Ġdays": 1938,
      "Ġamong": 1939,
      "Ġdise": 1940,
      "ched": 1941,
      "wer": 1942,
      "ane": 1943,
      "Ġcho": 1944,
      "Ġenvironment": 1945,
      "iver": 1946,
      "most": 1947,
      "ilar": 1948,
      "Ġclear": 1949,
      "ffic": 1950,
      "Ġmaterial": 1951,
      "org": 1952,
      "aps": 1953,
      "Ġsignific": 1954,
      "Ã©d": 1955,
      "Ġside": 1956,
      "ĠChrist": 1957,
      "ui": 1958,
      "Ġlangu": 1959,
      "Ġpain": 1960,
      "vious": 1961,
      "ung": 1962,
      "Ġland": 1963,
      "Ġwhy": 1964,
      "Ġperiod": 1965,
      "uis": 1966,
      "Ġhig": 1967,
      "ysis": 1968,
      "Ġreturn": 1969,
      "Ġstep": 1970,
      "ĠOne": 1971,
      "Ġsum": 1972,
      "ES": 1973,
      "ee": 1974,
      "==": 1975,
      "oph": 1976,
      "den": 1977,
      "ret": 1978,
      "Ġdiscuss": 1979,
      "Ġlocal": 1980,
      "Ġtype": 1981,
      "39": 1982,
      "over": 1983,
      "let": 1984,
      "Ġaddition": 1985,
      "ude": 1986,
      "Ġlater": 1987,
      "Ġobs": 1988,
      "Ġver": 1989,
      "ask": 1990,
      "aster": 1991,
      "ĠWith": 1992,
      "Ġcomput": 1993,
      "Ġmaking": 1994,
      "hing": 1995,
      "Ġanim": 1996,
      "Ġshort": 1997,
      "Ġupon": 1998,
      "ĠNe": 1999,
      "66": 2000,
      "ape": 2001,
      "Ġey": 2002,
      "though": 2003,
      "DA": 2004,
      "Ġcond": 2005,
      "ware": 2006,
      "aux": 2007,
      "ette": 2008,
      "EC": 2009,
      "Ġhistory": 2010,
      "ĠPr": 2011,
      "ĠGod": 2012,
      "aim": 2013,
      "ients": 2014,
      "ological": 2015,
      "Ġwon": 2016,
      "Ġcrit": 2017,
      "Ġavail": 2018,
      "ĠĠĠĠĠĠĠ": 2019,
      "Ġens": 2020,
      "ogn": 2021,
      "ready": 2022,
      "ending": 2023,
      "Ġbig": 2024,
      "Ġcame": 2025,
      "Ġprinci": 2026,
      "Ġsont": 2027,
      "iÃ¨re": 2028,
      "Ġrele": 2029,
      "Ġleast": 2030,
      "Ġaccess": 2031,
      "ctions": 2032,
      "It": 2033,
      "ggest": 2034,
      "ym": 2035,
      "Ġhaving": 2036,
      "abor": 2037,
      "Ġgre": 2038,
      "ĠGu": 2039,
      "Ġlearning": 2040,
      "Ġbi": 2041,
      "ateg": 2042,
      "ged": 2043,
      "ored": 2044,
      "Ã¡": 2045,
      "ĠMan": 2046,
      "agement": 2047,
      "Ġ11": 2048,
      "Ġalong": 2049,
      "cially": 2050,
      "Ġmodel": 2051,
      "rap": 2052,
      "yl": 2053,
      "Ġkind": 2054,
      "Ġwr": 2055,
      "Ġconc": 2056,
      "ĠGe": 2057,
      ":\\": 2058,
      "ĠEurope": 2059,
      "Ġ30": 2060,
      "://": 2061,
      "ables": 2062,
      "Ġfri": 2063,
      "ication": 2064,
      "Ġvo": 2065,
      "ww": 2066,
      "ortun": 2067,
      "Ġweek": 2068,
      "ribut": 2069,
      "Ġdeterm": 2070,
      "ĠNo": 2071,
      "eter": 2072,
      "Ġcreat": 2073,
      "Ġabove": 2074,
      "ĠBrit": 2075,
      "Ġrepresent": 2076,
      "osp": 2077,
      "Ġtri": 2078,
      "Ġ2017": 2079,
      "ĠUS": 2080,
      "Ġindust": 2081,
      "Ġpress": 2082,
      "ĠWor": 2083,
      "83": 2084,
      "Ġfocus": 2085,
      "Ġprem": 2086,
      "89": 2087,
      "mber": 2088,
      "stit": 2089,
      "Ġapplic": 2090,
      "Ġtell": 2091,
      "ĠĠĠĠĠ": 2092,
      "ĠAb": 2093,
      "Ġcompany": 2094,
      "Ġappear": 2095,
      "lo": 2096,
      "Ġmot": 2097,
      "ued": 2098,
      "Ġ;": 2099,
      "ĠGo": 2100,
      "Ġgeneral": 2101,
      "BC": 2102,
      "EE": 2103,
      "ĠQu": 2104,
      "face": 2105,
      "Ġenough": 2106,
      "Ġsure": 2107,
      "--------": 2108,
      "ences": 2109,
      "Ġfull": 2110,
      "icult": 2111,
      "Ġlarg": 2112,
      "side": 2113,
      "57": 2114,
      "Ġmillion": 2115,
      "mp": 2116,
      "Ġpay": 2117,
      "erc": 2118,
      "aff": 2119,
      "ĠStates": 2120,
      "Ġbenef": 2121,
      "ring": 2122,
      "Ġacross": 2123,
      "Ġill": 2124,
      "GTA": 2125,
      "Ġcause": 2126,
      "Ġdue": 2127,
      "ires": 2128,
      "Ġsuggest": 2129,
      "aces": 2130,
      "ĠCent": 2131,
      "Ġsent": 2132,
      "Ã´": 2133,
      "Ġlot": 2134,
      "Ġalready": 2135,
      "ference": 2136,
      "Ġtoget": 2137,
      "BA": 2138,
      "Ġmind": 2139,
      "Ġtogether": 2140,
      "my": 2141,
      "ze": 2142,
      "Ġworks": 2143,
      "Ġmort": 2144,
      "Ġcou": 2145,
      "Ġdeath": 2146,
      "AAAA": 2147,
      "Ġstat": 2148,
      "Ġopt": 2149,
      "Ġthought": 2150,
      "Ġdescrib": 2151,
      "Ġexperience": 2152,
      "ledge": 2153,
      "ency": 2154,
      "Ġintern": 2155,
      "aining": 2156,
      "Ġcomme": 2157,
      "Ġcharacter": 2158,
      "Ġstrong": 2159,
      "Ġrad": 2160,
      "glish": 2161,
      "ĠRo": 2162,
      "Ġrisk": 2163,
      "Ġmarket": 2164,
      "Ġpast": 2165,
      "Ġresults": 2166,
      "âĢ¦": 2167,
      "Ġ13": 2168,
      "200": 2169,
      "Ġnecess": 2170,
      "ively": 2171,
      "ĠnÃ©": 2172,
      "ĠSc": 2173,
      "ĠLes": 2174,
      "Ġexist": 2175,
      "ĠGerm": 2176,
      "rict": 2177,
      "Ġtot": 2178,
      "Ġprofess": 2179,
      "ĠMay": 2180,
      "wards": 2181,
      "Ġaccount": 2182,
      "lex": 2183,
      "Ġut": 2184,
      "||": 2185,
      "ges": 2186,
      "Ġpoints": 2187,
      "Ġavailable": 2188,
      "Ġyoung": 2189,
      "iers": 2190,
      "augh": 2191,
      "ounds": 2192,
      "Ġauthor": 2193,
      "Ġspace": 2194,
      "Wh": 2195,
      "Ġnet": 2196,
      "Ġproblems": 2197,
      "91": 2198,
      "fer": 2199,
      "ĠCal": 2200,
      "Ġonce": 2201,
      "CTA": 2202,
      "Ġrecord": 2203,
      "92": 2204,
      "Ġsoci": 2205,
      "Ġwin": 2206,
      "ĠAf": 2207,
      "Ġdone": 2208,
      "Ġaux": 2209,
      "aine": 2210,
      "rad": 2211,
      "ler": 2212,
      "oid": 2213,
      "aring": 2214,
      "Ġkey": 2215,
      "ification": 2216,
      "Ġassoci": 2217,
      "ruction": 2218,
      "ĠAm": 2219,
      "omet": 2220,
      "ĠYork": 2221,
      "ites": 2222,
      "ators": 2223,
      "verage": 2224,
      "Ġblood": 2225,
      "Ġseen": 2226,
      "Ġgame": 2227,
      "Ġimpact": 2228,
      "\".": 2229,
      "acy": 2230,
      "Ġreason": 2231,
      "DF": 2232,
      "Ġdom": 2233,
      "OR": 2234,
      "hemat": 2235,
      "Ġdou": 2236,
      "76": 2237,
      "32": 2238,
      "sp": 2239,
      "DE": 2240,
      "Ġcity": 2241,
      "Ġhouse": 2242,
      "ered": 2243,
      "Ġrelations": 2244,
      "ows": 2245,
      "Ġsignificant": 2246,
      "selves": 2247,
      "ĠSte": 2248,
      "Ġemploy": 2249,
      "Ġgot": 2250,
      "Ġmeet": 2251,
      "upp": 2252,
      "Ġcorre": 2253,
      "Ġwords": 2254,
      "Ġheart": 2255,
      "reg": 2256,
      "ery": 2257,
      "ĠSome": 2258,
      "Ġtook": 2259,
      "Ġfuture": 2260,
      "31": 2261,
      "Ġworking": 2262,
      "94": 2263,
      "Ġage": 2264,
      "Ġmor": 2265,
      "istic": 2266,
      "Ġhowever": 2267,
      "Ġcreate": 2268,
      "IG": 2269,
      "ream": 2270,
      "Ġcommunity": 2271,
      "orts": 2272,
      "Ġvarious": 2273,
      "Ġamount": 2274,
      "We": 2275,
      "ublic": 2276,
      "Ġren": 2277,
      "Ġthing": 2278,
      "go": 2279,
      "56": 2280,
      "ĠFran": 2281,
      "iol": 2282,
      "Ġplant": 2283,
      "Ġsimilar": 2284,
      "ĠMe": 2285,
      "ened": 2286,
      "'ve": 2287,
      "ta": 2288,
      "Ġever": 2289,
      "Ġspecial": 2290,
      "uary": 2291,
      "arc": 2292,
      "Ġdifficult": 2293,
      "aint": 2294,
      "Ġspecific": 2295,
      "Ġbegin": 2296,
      "ights": 2297,
      "usion": 2298,
      "xim": 2299,
      "____": 2300,
      "Ġcalcul": 2301,
      "EF": 2302,
      "Ġ#": 2303,
      "ĠEnglish": 2304,
      "pecially": 2305,
      "nes": 2306,
      "Ġface": 2307,
      "ney": 2308,
      "Ġsens": 2309,
      "Ġwhether": 2310,
      "Ġhalf": 2311,
      "Ġele": 2312,
      "},": 2313,
      "Ġnatural": 2314,
      "Ġlanguage": 2315,
      "Ġfall": 2316,
      "Ġmoney": 2317,
      "ĠAfter": 2318,
      "Ġ\\\\": 2319,
      "Ġimm": 2320,
      "ror": 2321,
      "iam": 2322,
      "ĠDes": 2323,
      "ĠTrump": 2324,
      "Ġsubject": 2325,
      "Ġdr": 2326,
      "ising": 2327,
      "ĠPol": 2328,
      "urch": 2329,
      "lem": 2330,
      "ils": 2331,
      "epend": 2332,
      "ols": 2333,
      "ample": 2334,
      "Ġlib": 2335,
      "Ġpri": 2336,
      "ĠWest": 2337,
      "Ġmom": 2338,
      "ĠRep": 2339,
      "Ġfield": 2340,
      "Ġlog": 2341,
      "aves": 2342,
      "Ġfive": 2343,
      "ief": 2344,
      "Ġhold": 2345,
      "Ġparent": 2346,
      "Ġpolic": 2347,
      "CTC": 2348,
      "Ã¤n": 2349,
      "Ġwhole": 2350,
      "ĠWar": 2351,
      "Ġsystems": 2352,
      "ĠGen": 2353,
      "....": 2354,
      "Ġtre": 2355,
      "Ġlikely": 2356,
      "itor": 2357,
      "Ġfran": 2358,
      "Ã¢": 2359,
      "ister": 2360,
      "Ġself": 2361,
      "Ġchall": 2362,
      "Ġscient": 2363,
      "ises": 2364,
      "ially": 2365,
      "Ġstory": 2366,
      "ĠDo": 2367,
      "78": 2368,
      "Ġjour": 2369,
      "Ġtalk": 2370,
      "asing": 2371,
      "Ġcomplex": 2372,
      "ilities": 2373,
      "II": 2374,
      "Ġdetail": 2375,
      "58": 2376,
      "ĠHis": 2377,
      "Un": 2378,
      "Ġarg": 2379,
      "iment": 2380,
      "TAAA": 2381,
      "Ġses": 2382,
      "illed": 2383,
      "ls": 2384,
      "Ã¶": 2385,
      "iÃ¨": 2386,
      "ony": 2387,
      "Ġgrand": 2388,
      ".)": 2389,
      "uel": 2390,
      "Ġwind": 2391,
      "new": 2392,
      "idd": 2393,
      "duct": 2394,
      "Ġrespons": 2395,
      "Ġeither": 2396,
      "Ġinit": 2397,
      "Ġple": 2398,
      "Ġnature": 2399,
      "BF": 2400,
      "isc": 2401,
      "Ġsix": 2402,
      "Ġmass": 2403,
      "ips": 2404,
      "Ġabs": 2405,
      "ĠNational": 2406,
      "06": 2407,
      "Ġpopulation": 2408,
      "aching": 2409,
      "etic": 2410,
      "Ch": 2411,
      "Ġneeds": 2412,
      "ĠEd": 2413,
      "Ġareas": 2414,
      "oir": 2415,
      "Ġmakes": 2416,
      "Ġfurther": 2417,
      "ilt": 2418,
      "Ġexc": 2419,
      "Ġsingle": 2420,
      "ĠFl": 2421,
      "Ġinflu": 2422,
      "Ġyet": 2423,
      "Ġvir": 2424,
      "plic": 2425,
      "Ġtaken": 2426,
      "Ġevent": 2427,
      "Ġnight": 2428,
      "Ġsimple": 2429,
      "ibility": 2430,
      "oon": 2431,
      "Ġfig": 2432,
      "uck": 2433,
      "'m": 2434,
      "with": 2435,
      "Ġnorm": 2436,
      "Ġconditions": 2437,
      "05": 2438,
      "rown": 2439,
      "action": 2440,
      "ĠMed": 2441,
      "rences": 2442,
      "Ġdisease": 2443,
      "Ġrather": 2444,
      "alt": 2445,
      "atures": 2446,
      "arr": 2447,
      "Ġtoday": 2448,
      "oud": 2449,
      "ï¿½ï¿½ï¿½ï¿½ï¿½": 2450,
      "yle": 2451,
      "Ġ...": 2452,
      "ening": 2453,
      "ustom": 2454,
      "ĠEl": 2455,
      "Ġconcept": 2456,
      "Ġarticle": 2457,
      "Ġpred": 2458,
      "ĠJe": 2459,
      "Ġhigher": 2460,
      "na": 2461,
      "St": 2462,
      "Ġder": 2463,
      "ĠIm": 2464,
      "Ġlove": 2465,
      "Ġ14": 2466,
      "AT": 2467,
      "ĠMr": 2468,
      "ĠPe": 2469,
      "urb": 2470,
      "Ġge": 2471,
      "Ġchanges": 2472,
      "bra": 2473,
      "ĠPres": 2474,
      "Ġprevent": 2475,
      "fin": 2476,
      "eur": 2477,
      "Ġpaper": 2478,
      "34": 2479,
      "Ġsat": 2480,
      "AF": 2481,
      "ĠWill": 2482,
      "Ġbecame": 2483,
      "Ġsuper": 2484,
      "Ġattack": 2485,
      "Ġ/": 2486,
      "Ġintrodu": 2487,
      "ster": 2488,
      "Ġ--": 2489,
      "hern": 2490,
      "AD": 2491,
      "ĠCont": 2492,
      "AN": 2493,
      "Ġnational": 2494,
      "ĠSci": 2495,
      "Ġbehav": 2496,
      "Ġrate": 2497,
      "Ġposition": 2498,
      "Ġservice": 2499,
      "Ġanalysis": 2500,
      "str": 2501,
      "utes": 2502,
      "ĠDr": 2503,
      "ĠCo": 2504,
      "ĠEng": 2505,
      "Ġtou": 2506,
      "IS": 2507,
      "EN": 2508,
      "Ġrequire": 2509,
      "Ġteac": 2510,
      "Ġdig": 2511,
      "obal": 2512,
      "'ll": 2513,
      "ush": 2514,
      "BB": 2515,
      "Ã©g": 2516,
      "curity": 2517,
      "Ġcamp": 2518,
      "Ġincrease": 2519,
      "Ġwent": 2520,
      "Ġblack": 2521,
      "Ġhistor": 2522,
      "Ġbelow": 2523,
      "Ġcoll": 2524,
      "Ġpotential": 2525,
      "Ġhom": 2526,
      "Ġprim": 2527,
      "Ġquestions": 2528,
      "Ġrole": 2529,
      "Ġcy": 2530,
      "Ġalmost": 2531,
      "Ġestab": 2532,
      "Ġdoc": 2533,
      "Ġjob": 2534,
      "AR": 2535,
      "utions": 2536,
      "chie": 2537,
      "Ġred": 2538,
      "Ġeducation": 2539,
      "Ġcut": 2540,
      "ĠFrance": 2541,
      "Ġfail": 2542,
      "Ġtold": 2543,
      "iting": 2544,
      "Ġspecies": 2545,
      "Ġri": 2546,
      "Ġphot": 2547,
      "84": 2548,
      "Ġ2016": 2549,
      "Ġespecially": 2550,
      "Ġlive": 2551,
      "Ġbar": 2552,
      "Ġword": 2553,
      "07": 2554,
      "Ġimprove": 2555,
      "ttp": 2556,
      "Ġdest": 2557,
      "Ġaccording": 2558,
      "ules": 2559,
      "ĠBr": 2560,
      "ĠJanuary": 2561,
      "Ġpriv": 2562,
      "ĠPer": 2563,
      "ĠStud": 2564,
      "ĠPa": 2565,
      "Ġje": 2566,
      "Ã®": 2567,
      "Ġtrue": 2568,
      "onse": 2569,
      "Ġdeg": 2570,
      "Ġaddress": 2571,
      "sc": 2572,
      "Ġdiv": 2573,
      "Ġ25": 2574,
      "Ġhab": 2575,
      "Ġways": 2576,
      "CE": 2577,
      "Ġstop": 2578,
      "Ġentre": 2579,
      "Ġfoot": 2580,
      "ĠSouth": 2581,
      "ĠÃ©tÃ©": 2582,
      "Ġdri": 2583,
      "atter": 2584,
      "Ġactually": 2585,
      "pose": 2586,
      "Ġknowledge": 2587,
      "ĠNot": 2588,
      "Ġneg": 2589,
      "ival": 2590,
      "Ġusually": 2591,
      "roll": 2592,
      "Ġste": 2593,
      "Ġmembers": 2594,
      "overed": 2595,
      "ĠEar": 2596,
      "bert": 2597,
      "ĠWorld": 2598,
      "ĠApp": 2599,
      "oup": 2600,
      "Ġrespect": 2601,
      "ĠSy": 2602,
      "82": 2603,
      "Ã©l": 2604,
      "Ġfa": 2605,
      "Ġ>": 2606,
      "Ġrange": 2607,
      "BD": 2608,
      "ett": 2609,
      "ĠRuss": 2610,
      "ĠAfric": 2611,
      "81": 2612,
      "Ġobserv": 2613,
      "Ġsoft": 2614,
      "63": 2615,
      "empt": 2616,
      "Ġtreatment": 2617,
      "Ġwhite": 2618,
      "Ġcentury": 2619,
      "Ġ{\"": 2620,
      "aced": 2621,
      "Ġtotal": 2622,
      "ĠWhile": 2623,
      "\\\",\\": 2624,
      "He": 2625,
      "Ġtemper": 2626,
      "Ãł": 2627,
      "Ġ100": 2628,
      "Ġidea": 2629,
      "Ġindic": 2630,
      "Ġcannot": 2631,
      "text": 2632,
      "Ġcases": 2633,
      "ĠMy": 2634,
      "iding": 2635,
      "Ġrev": 2636,
      "eds": 2637,
      "Ġclaim": 2638,
      "53": 2639,
      "Ġanswer": 2640,
      "ĠState": 2641,
      "Ġthemselves": 2642,
      "uf": 2643,
      "bo": 2644,
      "Ġdeux": 2645,
      "ike": 2646,
      "Ġhimself": 2647,
      "Ġsym": 2648,
      "uit": 2649,
      "Ġtechnology": 2650,
      "anced": 2651,
      "Ġtradition": 2652,
      "69": 2653,
      "AS": 2654,
      "ĠNorth": 2655,
      "rug": 2656,
      "uff": 2657,
      "vert": 2658,
      "ald": 2659,
      "Ġlower": 2660,
      "Ġparticip": 2661,
      "TCTT": 2662,
      "right": 2663,
      "Ġquick": 2664,
      "ĠSch": 2665,
      "oura": 2666,
      "Ġrepl": 2667,
      "bl": 2668,
      "Ġgrowth": 2669,
      "Ġnumbers": 2670,
      "Ġissues": 2671,
      "Ġdam": 2672,
      "79": 2673,
      "oul": 2674,
      "03": 2675,
      "Ġapproach": 2676,
      "ĠDep": 2677,
      "59": 2678,
      "bb": 2679,
      "Ġdoing": 2680,
      "hel": 2681,
      "âĶ": 2682,
      "Ġlay": 2683,
      "Ġlevels": 2684,
      "Ġmusic": 2685,
      "ada": 2686,
      "##": 2687,
      "Ġmatter": 2688,
      "64": 2689,
      "Ġterms": 2690,
      "Ġconcern": 2691,
      "ĠMin": 2692,
      "Ġtypes": 2693,
      "ding": 2694,
      "minist": 2695,
      "73": 2696,
      "mon": 2697,
      "ĠChar": 2698,
      "fect": 2699,
      "This": 2700,
      "ĠAmerica": 2701,
      "pre": 2702,
      "Ġsize": 2703,
      "ivity": 2704,
      "Ġmonths": 2705,
      "ament": 2706,
      "Ġloss": 2707,
      "ama": 2708,
      "Ġtit": 2709,
      "atory": 2710,
      "Ġcontent": 2711,
      "amed": 2712,
      "Ġentire": 2713,
      "elt": 2714,
      "Ġfrequ": 2715,
      "ĠAust": 2716,
      "ĠNow": 2717,
      "ĠCor": 2718,
      "Ġdoesn": 2719,
      "Ġsite": 2720,
      "Ġservices": 2721,
      "Ġproduction": 2722,
      "ivil": 2723,
      "erson": 2724,
      "ength": 2725,
      "Ġtro": 2726,
      "ante": 2727,
      "Ġfire": 2728,
      "Ġoccur": 2729,
      "alement": 2730,
      "Ġcode": 2731,
      "Ġcomes": 2732,
      "Ġtrou": 2733,
      "Ġopportun": 2734,
      "FF": 2735,
      "fl": 2736,
      "Ġrelationship": 2737,
      "Ġmilit": 2738,
      "ming": 2739,
      "inc": 2740,
      "Ġitself": 2741,
      "Ġachie": 2742,
      "Ġfra": 2743,
      "Ġsyn": 2744,
      "Ġbegan": 2745,
      "Ġunderstanding": 2746,
      "itted": 2747,
      "_,": 2748,
      "rench": 2749,
      "izing": 2750,
      "but": 2751,
      "ĠIntern": 2752,
      "medi": 2753,
      "Ġcirc": 2754,
      "lege": 2755,
      "Ġseries": 2756,
      "back": 2757,
      "sequ": 2758,
      "inary": 2759,
      "Ġscience": 2760,
      "Ġcheck": 2761,
      "Ġpolitical": 2762,
      "ili": 2763,
      "fully": 2764,
      "ĠPart": 2765,
      "Ã¼": 2766,
      "Ġcountries": 2767,
      "NNNNNNNNNNNNNNNNNNNNNNNNNNNNNNNNNNNNNNNNNNNNNNNN": 2768,
      "Ġbir": 2769,
      "Ġfront": 2770,
      "Ġgroups": 2771,
      "62": 2772,
      "ĠApr": 2773,
      "Ġperformance": 2774,
      "uk": 2775,
      "NNNNNNNNNNNNNNNNNNNNNNNNNNNNNNNNNNNNNNNNNNNNNNNNNN": 2776,
      "ball": 2777,
      "erve": 2778,
      "chan": 2779,
      "Ġmais": 2780,
      "ĠDon": 2781,
      "Ġground": 2782,
      "ana": 2783,
      "that": 2784,
      "Ġrelig": 2785,
      "Ãªme": 2786,
      "Ġmoment": 2787,
      "Ġvide": 2788,
      "Ġsort": 2789,
      "Ġflow": 2790,
      "61": 2791,
      "Ġsun": 2792,
      "Ġlooking": 2793,
      "Ġhours": 2794,
      "Ġaction": 2795,
      "ĠAcc": 2796,
      "earch": 2797,
      "71": 2798,
      "ĠMore": 2799,
      "Ġmaint": 2800,
      "Ġdidn": 2801,
      "Ġwriting": 2802,
      "aged": 2803,
      "Ġrecogn": 2804,
      "ging": 2805,
      "AB": 2806,
      "ĠHere": 2807,
      "Ġsense": 2808,
      "bon": 2809,
      "iction": 2810,
      "ift": 2811,
      "Ġsource": 2812,
      "Ġtaking": 2813,
      "ara": 2814,
      "ply": 2815,
      "ha": 2816,
      "Ġbit": 2817,
      "Ġclose": 2818,
      "ĠBar": 2819,
      "Ġsqu": 2820,
      "Ġregard": 2821,
      "Ġshare": 2822,
      "Ġcollect": 2823,
      "Ġforce": 2824,
      "Ġbelieve": 2825,
      "Ġbuilding": 2826,
      "Ġarch": 2827,
      "Ġcop": 2828,
      "Ġprovided": 2829,
      "aries": 2830,
      "Ġpersonal": 2831,
      "Ġ**": 2832,
      "Ġperm": 2833,
      "Ġdeal": 2834,
      "Ġnecessary": 2835,
      "Ġcustom": 2836,
      "DC": 2837,
      "year": 2838,
      "Ġprevious": 2839,
      "Ġbreak": 2840,
      "HE": 2841,
      "ĠBritish": 2842,
      "ij": 2843,
      "istant": 2844,
      "ensive": 2845,
      "Ġfait": 2846,
      "uth": 2847,
      "ius": 2848,
      "TCTG": 2849,
      "ĠTra": 2850,
      "Ġbring": 2851,
      "ĠTw": 2852,
      "artment": 2853,
      "lin": 2854,
      "oire": 2855,
      "Ġfav": 2856,
      "sych": 2857,
      "Ġconsum": 2858,
      "lying": 2859,
      "Ġsurface": 2860,
      ":**": 2861,
      "icro": 2862,
      "Ġmess": 2863,
      "Ġsil": 2864,
      "cret": 2865,
      "Ġmo": 2866,
      "Ġfem": 2867,
      "ached": 2868,
      "Ġskills": 2869,
      "Ġcommune": 2870,
      "idered": 2871,
      "umb": 2872,
      "Ġrequired": 2873,
      "aging": 2874,
      "Ġpie": 2875,
      "iddle": 2876,
      "ribution": 2877,
      "itude": 2878,
      "72": 2879,
      "Ġden": 2880,
      "Ġphysical": 2881,
      "leep": 2882,
      "54": 2883,
      "TATT": 2884,
      ")\\": 2885,
      "ĠrÃ©g": 2886,
      "Ġville": 2887,
      "Ġmeasure": 2888,
      "ĠAct": 2889,
      "Ġquality": 2890,
      "Ġtravel": 2891,
      "Ġneeded": 2892,
      "Ġstructure": 2893,
      "ID": 2894,
      "ops": 2895,
      "Ġ`": 2896,
      "Ġpropos": 2897,
      "idge": 2898,
      "Ġvalues": 2899,
      "As": 2900,
      "Ġcat": 2901,
      "Ã©c": 2902,
      "iet": 2903,
      "Ġseason": 2904,
      "ĠChe": 2905,
      "Ġtax": 2906,
      "oring": 2907,
      "acc": 2908,
      "Ġsuff": 2909,
      "Ġbill": 2910,
      "52": 2911,
      "Ġchem": 2912,
      "51": 2913,
      "ington": 2914,
      "anks": 2915,
      ");": 2916,
      "Ġ50": 2917,
      "amb": 2918,
      "Ġfilm": 2919,
      "ĠKing": 2920,
      "Ġcorrect": 2921,
      "Ġviol": 2922,
      "Ġeffects": 2923,
      "Ġstudent": 2924,
      "Ġaccept": 2925,
      "Ã¯": 2926,
      "rought": 2927,
      "ĠIl": 2928,
      "ĠComp": 2929,
      "Ġnothing": 2930,
      "Ġprotect": 2931,
      "Ġparts": 2932,
      "Ġengine": 2933,
      "ores": 2934,
      "isation": 2935,
      "head": 2936,
      "Ġgetting": 2937,
      "itation": 2938,
      "Ġfinan": 2939,
      "GAAA": 2940,
      "Ġjo": 2941,
      "Ġbecom": 2942,
      "Ġpath": 2943,
      "Ġsomeone": 2944,
      "Ġcells": 2945,
      "ĠHist": 2946,
      "ĠDav": 2947,
      "Ġpractice": 2948,
      "ĠMc": 2949,
      "ĠSchool": 2950,
      "rel": 2951,
      "Ġcondition": 2952,
      "Ġeffic": 2953,
      "icles": 2954,
      "off": 2955,
      "Ġheav": 2956,
      "play": 2957,
      "ĠKe": 2958,
      "Ġconsidered": 2959,
      "Ġdecl": 2960,
      "Ġstates": 2961,
      "Ġquant": 2962,
      "ĠJu": 2963,
      "where": 2964,
      "ĠYour": 2965,
      "Ġaffect": 2966,
      "attle": 2967,
      "ĠPresident": 2968,
      "ero": 2969,
      "ĠAug": 2970,
      "Ġlab": 2971,
      "BE": 2972,
      "hib": 2973,
      "Ġmach": 2974,
      "Ġquite": 2975,
      "Ġago": 2976,
      "iff": 2977,
      "TI": 2978,
      "?\"": 2979,
      "ying": 2980,
      "Ġthird": 2981,
      "Ġrelated": 2982,
      "rend": 2983,
      "Ġclos": 2984,
      "ham": 2985,
      "ĠMon": 2986,
      "Ġmultip": 2987,
      "reng": 2988,
      "Ġliving": 2989,
      "Ġdro": 2990,
      "fra": 2991,
      "Ġmathemat": 2992,
      "ĠGl": 2993,
      "08": 2994,
      "09": 2995,
      "order": 2996,
      "rary": 2997,
      "ressed": 2998,
      "aly": 2999,
      "Ġshows": 3000,
      "ÃŃ": 3001,
      "anger": 3002,
      "Ġeasy": 3003,
      "irm": 3004,
      "Ġinde": 3005,
      "ĠThen": 3006,
      "Ġtheory": 3007,
      "Ġcompet": 3008,
      "Ġsaw": 3009,
      "2019": 3010,
      "Re": 3011,
      "---": 3012,
      "lish": 3013,
      "Ġsepar": 3014,
      "74": 3015,
      "resp": 3016,
      "ension": 3017,
      ">\\": 3018,
      "Ġresources": 3019,
      "book": 3020,
      "Ġrecomm": 3021,
      "Ġbrain": 3022,
      "Ġonline": 3023,
      "Ġoriginal": 3024,
      "nThe": 3025,
      "light": 3026,
      "Ġnews": 3027,
      "Al": 3028,
      "ĠfranÃ§": 3029,
      "istics": 3030,
      "Ġsus": 3031,
      "Ġmodern": 3032,
      "Ġhor": 3033,
      "Ġpositive": 3034,
      "Ġshall": 3035,
      "time": 3036,
      "Ġmethods": 3037,
      "oe": 3038,
      "Ġactivities": 3039,
      "Ġasked": 3040,
      "Ġ21": 3041,
      "Ġproducts": 3042,
      "Ġang": 3043,
      "like": 3044,
      "Ġdeep": 3045,
      "itch": 3046,
      "urg": 3047,
      "ners": 3048,
      "Ġaverage": 3049,
      "come": 3050,
      "ceed": 3051,
      "oor": 3052,
      "Ġvict": 3053,
      "uge": 3054,
      "Ġreading": 3055,
      "Ġmanagement": 3056,
      "ĠÃī": 3057,
      "Ġdeb": 3058,
      "Ġtable": 3059,
      "Ġtour": 3060,
      "02": 3061,
      "Ġbase": 3062,
      "Ġweight": 3063,
      "Ġsoon": 3064,
      "haps": 3065,
      "Ġissue": 3066,
      "Ġetc": 3067,
      "ĠOct": 3068,
      "Ġheld": 3069,
      "Ġcoun": 3070,
      "04": 3071,
      "Ġobt": 3072,
      "Ġbehind": 3073,
      "Ġexperien": 3074,
      "You": 3075,
      "Ġcommand": 3076,
      "Ġdie": 3077,
      "ĠPhil": 3078,
      "Ġimplement": 3079,
      "anc": 3080,
      "Ġanci": 3081,
      "mes": 3082,
      "Ġadded": 3083,
      "Ġsem": 3084,
      "Ġlonger": 3085,
      "ĠCount": 3086,
      "df": 3087,
      "ira": 3088,
      "Ġsous": 3089,
      "Ġled": 3090,
      "Ġprobably": 3091,
      "CF": 3092,
      "Ġund": 3093,
      "DD": 3094,
      "Ġ}": 3095,
      "ĠLet": 3096,
      "yd": 3097,
      "Ġanything": 3098,
      "Ġbad": 3099,
      "ques": 3100,
      "Ġcompan": 3101,
      "ĠSun": 3102,
      "hold": 3103,
      "Ġcreated": 3104,
      "vant": 3105,
      "eration": 3106,
      "ares": 3107,
      "istance": 3108,
      "ĠFrom": 3109,
      "rote": 3110,
      "atives": 3111,
      "Ġcompos": 3112,
      "adem": 3113,
      "verse": 3114,
      "Ġmiss": 3115,
      "\\\"\\": 3116,
      "Ġindustry": 3117,
      "Ġ24": 3118,
      "Ġdefin": 3119,
      "Ġparents": 3120,
      "ese": 3121,
      "Ġevidence": 3122,
      "Ġeyes": 3123,
      "ĠJap": 3124,
      "Ġdog": 3125,
      "Ġeconomic": 3126,
      "urt": 3127,
      "range": 3128,
      "Ġstandard": 3129,
      "Ġprovides": 3130,
      "iles": 3131,
      "ula": 3132,
      "Ġensure": 3133,
      "mar": 3134,
      "Ġwritten": 3135,
      "Ġhands": 3136,
      "raft": 3137,
      "Ġreview": 3138,
      "ĠLond": 3139,
      "ocr": 3140,
      "Ġsett": 3141,
      "ĠFrench": 3142,
      "CAGG": 3143,
      "Ġstarted": 3144,
      "Ġstudies": 3145,
      "Ġtarg": 3146,
      "dom": 3147,
      "Ġsolution": 3148,
      "Ġexpect": 3149,
      "Ġtraining": 3150,
      "Ġsud": 3151,
      "Ġpatients": 3152,
      "Ġelse": 3153,
      "based": 3154,
      "Ġpopular": 3155,
      "Ar": 3156,
      "Ġsold": 3157,
      "Ġmention": 3158,
      "Ġability": 3159,
      "Ġutil": 3160,
      "TGTG": 3161,
      "Ġbal": 3162,
      "Ġminutes": 3163,
      "Ġaud": 3164,
      "Ã©ri": 3165,
      "ĠUs": 3166,
      "Ġliter": 3167,
      "Ġsomet": 3168,
      "Ġvill": 3169,
      "Ġdeveloped": 3170,
      "gor": 3171,
      "Ġformer": 3172,
      "aving": 3173,
      "Ġont": 3174,
      "elling": 3175,
      "Ġglobal": 3176,
      "ades": 3177,
      "Ġfeet": 3178,
      "ĠÎ": 3179,
      "Ã©ric": 3180,
      "ĠMa": 3181,
      "ĠEm": 3182,
      "Ġactivity": 3183,
      "Ġexact": 3184,
      "Ġdraw": 3185,
      "Ġpage": 3186,
      "Ġpet": 3187,
      "Ġseems": 3188,
      "Ġculture": 3189,
      "Ġmother": 3190,
      "ĠHealth": 3191,
      "Ġprop": 3192,
      "ĠMat": 3193,
      "Ġattempt": 3194,
      "Ġlate": 3195,
      "hood": 3196,
      "Ġresponse": 3197,
      "ĠprÃ©s": 3198,
      "Ġcross": 3199,
      "Ġsaf": 3200,
      "ĠHar": 3201,
      "Ġpressure": 3202,
      "Ġpattern": 3203,
      "ĠAg": 3204,
      "Ġcancer": 3205,
      "Ġdont": 3206,
      "fort": 3207,
      "Ġten": 3208,
      "Ġnation": 3209,
      "Ġsex": 3210,
      "Ġroom": 3211,
      "Ġoil": 3212,
      "Ġprincip": 3213,
      "astic": 3214,
      "ĠPre": 3215,
      "inter": 3216,
      "Ġsal": 3217,
      "Ġinternational": 3218,
      "Ġpublished": 3219,
      "ĠSm": 3220,
      "Ġinj": 3221,
      "undred": 3222,
      "Ġwalk": 3223,
      "Ġdemand": 3224,
      "Ġrecent": 3225,
      "Ġchalleng": 3226,
      "Ġevents": 3227,
      "Ġexerc": 3228,
      "Ġsimply": 3229,
      "Ġincludes": 3230,
      "ĠII": 3231,
      "AE": 3232,
      "Ġbur": 3233,
      "Ġwhose": 3234,
      "Ġshown": 3235,
      "Ġrights": 3236,
      "CD": 3237,
      "ptoms": 3238,
      "Ġfinal": 3239,
      "Ġoutside": 3240,
      "Ġeffective": 3241,
      "Ġplants": 3242,
      "ĠsÃ©": 3243,
      "Ã¹": 3244,
      "ĠArt": 3245,
      "Ġlink": 3246,
      "ĠWilliam": 3247,
      "Ġregular": 3248,
      "aily": 3249,
      "Ġcontact": 3250,
      "iation": 3251,
      "Ġassociated": 3252,
      "Ġtown": 3253,
      "ĠHer": 3254,
      "cription": 3255,
      "ris": 3256,
      "ĠFin": 3257,
      "Ġcomputer": 3258,
      "ender": 3259,
      "Ġemer": 3260,
      "Ġconduct": 3261,
      "Ġcapt": 3262,
      "ĠParis": 3263,
      "aires": 3264,
      "itting": 3265,
      "Ġscre": 3266,
      "la": 3267,
      "Ġfather": 3268,
      "Ġroad": 3269,
      "room": 3270,
      "Ġstreng": 3271,
      "Ġpict": 3272,
      "Ġsound": 3273,
      "Ġcontinue": 3274,
      "isions": 3275,
      "asc": 3276,
      "Ġsometimes": 3277,
      "ï¼": 3278,
      "used": 3279,
      "Ġdrug": 3280,
      "Ġcomplete": 3281,
      "Ġmedia": 3282,
      "ino": 3283,
      "see": 3284,
      "Ġhon": 3285,
      "Ġdocument": 3286,
      "ĠSim": 3287,
      "Ġmis": 3288,
      "ĠMus": 3289,
      "Ġlost": 3290,
      "Ã³": 3291,
      "Ġincreased": 3292,
      "men": 3293,
      "va": 3294,
      "Ġstra": 3295,
      "Ġmedical": 3296,
      "Ġimage": 3297,
      "Ġspeak": 3298,
      "ĠSu": 3299,
      "oke": 3300,
      "Ġstay": 3301,
      "irit": 3302,
      "Ġfriends": 3303,
      "ropri": 3304,
      "Ġselect": 3305,
      "Ġinstead": 3306,
      "Ġanaly": 3307,
      "ĠReg": 3308,
      "And": 3309,
      "Ġtakes": 3310,
      "lam": 3311,
      "tic": 3312,
      "ĠChina": 3313,
      "CACA": 3314,
      "Ġcolor": 3315,
      "Ãī": 3316,
      "ĠMarch": 3317,
      "Ġexec": 3318,
      "ĠCO": 3319,
      "des": 3320,
      "CAAA": 3321,
      "ĠCons": 3322,
      "Ġlength": 3323,
      "Ġsecurity": 3324,
      "):": 3325,
      "Ġdifference": 3326,
      "TATA": 3327,
      "ĠSpe": 3328,
      "joy": 3329,
      "Ġwall": 3330,
      "Ġbuilt": 3331,
      "dd": 3332,
      "Ġvisit": 3333,
      "pid": 3334,
      "ĠCity": 3335,
      "Ġofficial": 3336,
      "Ġthroughout": 3337,
      "imin": 3338,
      "Ġsection": 3339,
      "ĠFirst": 3340,
      "ems": 3341,
      "Ġfactors": 3342,
      "ĠVal": 3343,
      "Ġhope": 3344,
      "hens": 3345,
      "rast": 3346,
      "ĠMost": 3347,
      "Ġleaders": 3348,
      "Ġreported": 3349,
      "oles": 3350,
      "Ġwebs": 3351,
      "Ġorigin": 3352,
      "âĶĢ": 3353,
      "Ġflu": 3354,
      "Ġgraph": 3355,
      "Ġemb": 3356,
      "oved": 3357,
      "Ġtrying": 3358,
      "Ġlives": 3359,
      "lation": 3360,
      "Ġwrote": 3361,
      "ties": 3362,
      "Ġexpected": 3363,
      "Ġgir": 3364,
      "ĠMany": 3365,
      "AL": 3366,
      "Ġgreater": 3367,
      "Ġcette": 3368,
      "Ġestim": 3369,
      "duc": 3370,
      "ĠâĶ": 3371,
      "Ġfight": 3372,
      "Ġfarm": 3373,
      "omb": 3374,
      "GAGA": 3375,
      "ka": 3376,
      "Ġcit": 3377,
      "pped": 3378,
      "ĠJust": 3379,
      "Ġpresident": 3380,
      "Ġir": 3381,
      "Ġrelative": 3382,
      "ĠdÃ©c": 3383,
      "Ġdesigned": 3384,
      "Ġregion": 3385,
      "ederal": 3386,
      "ellow": 3387,
      "Ġstri": 3388,
      "ĠOb": 3389,
      "Ġfeed": 3390,
      "Ġthus": 3391,
      "Ġcompon": 3392,
      "gebra": 3393,
      "set": 3394,
      "arily": 3395,
      "Ġexcept": 3396,
      "Ġthous": 3397,
      "ulations": 3398,
      "ford": 3399,
      "Ġconsist": 3400,
      "Ġnetwork": 3401,
      "gar": 3402,
      "Ġwoman": 3403,
      "Ġgas": 3404,
      "cks": 3405,
      "Ġcred": 3406,
      "Ġwrite": 3407,
      "ĠJapan": 3408,
      "Ġpolicy": 3409,
      "aches": 3410,
      "ĠWash": 3411,
      "Ġ{\\": 3412,
      "Ġinvestig": 3413,
      "Ġoffer": 3414,
      "Ġappl": 3415,
      "Ġreduce": 3416,
      "Ġeverything": 3417,
      "ixed": 3418,
      "inks": 3419,
      "ĠJew": 3420,
      "Ġfat": 3421,
      "Ġord": 3422,
      "Ġassess": 3423,
      "Ġearth": 3424,
      "gorith": 3425,
      "ussi": 3426,
      "Ġconstit": 3427,
      "Ġmeaning": 3428,
      "Ġvideo": 3429,
      "Ġminim": 3430,
      "Ġmechan": 3431,
      "Ġsituation": 3432,
      "ement": 3433,
      "alle": 3434,
      "lier": 3435,
      "just": 3436,
      "which": 3437,
      "Ġdead": 3438,
      "Ġagree": 3439,
      "Ġjud": 3440,
      "ii": 3441,
      "\"},": 3442,
      "Ġdemon": 3443,
      "Ġmer": 3444,
      "Ġmagn": 3445,
      "Ġpack": 3446,
      "Ġlui": 3447,
      "Ġsurv": 3448,
      "Ġbrought": 3449,
      "Ġindepend": 3450,
      "ss": 3451,
      "Ġavoid": 3452,
      "unt": 3453,
      "cons": 3454,
      "rick": 3455,
      "FC": 3456,
      "Ġhabit": 3457,
      "alu": 3458,
      "ĠPat": 3459,
      "ste": 3460,
      "ustr": 3461,
      "Ġappe": 3462,
      "Ġadminist": 3463,
      "Ġsleep": 3464,
      "era": 3465,
      "Ġattention": 3466,
      "reet": 3467,
      "Ġextra": 3468,
      "lim": 3469,
      "bor": 3470,
      "ĠBer": 3471,
      "Ġgreen": 3472,
      "Ġnou": 3473,
      "Ġclean": 3474,
      "ĠSw": 3475,
      "Ġprep": 3476,
      "US": 3477,
      "Ġquar": 3478,
      "Ġnut": 3479,
      "Ġnormal": 3480,
      "ĠOf": 3481,
      "ĠIndia": 3482,
      "zz": 3483,
      "vey": 3484,
      "ague": 3485,
      "ously": 3486,
      "Ġgave": 3487,
      "Ġthreat": 3488,
      "Ġimmedi": 3489,
      "apter": 3490,
      "eks": 3491,
      "Ġmaterials": 3492,
      "Ġencoura": 3493,
      "ĠAustral": 3494,
      "cember": 3495,
      "AP": 3496,
      "orge": 3497,
      "Ġprint": 3498,
      "GTC": 3499,
      "Ġast": 3500,
      "Ġinvolved": 3501,
      "ords": 3502,
      "Ġhost": 3503,
      "ica": 3504,
      "Ġincreasing": 3505,
      "umn": 3506,
      "osis": 3507,
      "ĠFeb": 3508,
      "Ġreceived": 3509,
      "Ġfinancial": 3510,
      "Ġdark": 3511,
      "Ġhundred": 3512,
      "Ġsociety": 3513,
      "Ġanimals": 3514,
      "Ġindividuals": 3515,
      "Ġsn": 3516,
      "CATT": 3517,
      "olic": 3518,
      "Ġspread": 3519,
      "ĠRead": 3520,
      "Ġconnect": 3521,
      "Ġinn": 3522,
      "ĠOur": 3523,
      "Ġbeaut": 3524,
      "ults": 3525,
      "Ġparticularly": 3526,
      "da": 3527,
      "ĠOther": 3528,
      "Ġcapital": 3529,
      "TE": 3530,
      "Ġmultiple": 3531,
      "vere": 3532,
      "can": 3533,
      "ager": 3534,
      "tr": 3535,
      "Ġslow": 3536,
      "Ġversion": 3537,
      "ĠDis": 3538,
      "Ġstru": 3539,
      "respond": 3540,
      "Ġcivil": 3541,
      "Ġcourt": 3542,
      "amin": 3543,
      "rs": 3544,
      "yp": 3545,
      "ĠGerman": 3546,
      "Ġinform": 3547,
      "Ġunique": 3548,
      "yond": 3549,
      "ĠMor": 3550,
      "Ġpoor": 3551,
      "Ġtherefore": 3552,
      "wor": 3553,
      "Ġcover": 3554,
      "Ġcompanies": 3555,
      "Ġmath": 3556,
      "FA": 3557,
      "ĠSept": 3558,
      "Ġdat": 3559,
      "Ġprice": 3560,
      "Ġbehavior": 3561,
      "cil": 3562,
      "lands": 3563,
      "Ġlines": 3564,
      "Ġisn": 3565,
      "Ġdecision": 3566,
      "Ġcontinu": 3567,
      "Ġsearch": 3568,
      "Ġ23": 3569,
      "ĠHouse": 3570,
      "====": 3571,
      "Ġsec": 3572,
      "Ġfund": 3573,
      "Ġlack": 3574,
      "Ġelements": 3575,
      "Ġskin": 3576,
      "Ġcard": 3577,
      "Ã©m": 3578,
      "ĠâĶĤ": 3579,
      "Ġ22": 3580,
      "Ġful": 3581,
      "Ġproduce": 3582,
      "Ġcomplet": 3583,
      "Ġbroad": 3584,
      "Ã©p": 3585,
      "</": 3586,
      "Ġball": 3587,
      "unch": 3588,
      "ĠMod": 3589,
      "ellig": 3590,
      "Ġautom": 3591,
      "Ġsubst": 3592,
      "Ġelle": 3593,
      "enty": 3594,
      "ufact": 3595,
      "Ġlat": 3596,
      "rew": 3597,
      "EB": 3598,
      "Ġheat": 3599,
      "asons": 3600,
      "Ġaim": 3601,
      "Ġ2010": 3602,
      "ĠAugust": 3603,
      "ienne": 3604,
      "Ġsymptoms": 3605,
      "fficient": 3606,
      "iday": 3607,
      "Ġcoming": 3608,
      "Ġfunctions": 3609,
      "ned": 3610,
      "Ġsi": 3611,
      "UR": 3612,
      "ĠLondon": 3613,
      "Ġresearc": 3614,
      "Ġinside": 3615,
      "ĠJune": 3616,
      "Ġuses": 3617,
      "ĠWhy": 3618,
      "Ġbooks": 3619,
      "Ġtout": 3620,
      "Ġtowards": 3621,
      "TGTT": 3622,
      "ĠWashington": 3623,
      "ĠSub": 3624,
      "Ġaw": 3625,
      "Ġspeed": 3626,
      "Ġaussi": 3627,
      "Ġforward": 3628,
      "Ġaccur": 3629,
      "king": 3630,
      "uses": 3631,
      "met": 3632,
      "Ġenjoy": 3633,
      "ĠEngland": 3634,
      "ests": 3635,
      "Ġbasic": 3636,
      "Ġdate": 3637,
      "ken": 3638,
      "ĠBo": 3639,
      "ĠGre": 3640,
      "wise": 3641,
      "Ġfriend": 3642,
      "Ġsoftware": 3643,
      "iforn": 3644,
      "Ġemot": 3645,
      "Ġclimate": 3646,
      "Ġfish": 3647,
      "Ġmilitary": 3648,
      "Ġfeatures": 3649,
      "ĠHigh": 3650,
      "Ġserious": 3651,
      "ĠTrans": 3652,
      "``": 3653,
      "Ġ)": 3654,
      "Ġpsych": 3655,
      "ĠInt": 3656,
      "ca": 3657,
      "Ġreflect": 3658,
      "Ġtemperature": 3659,
      "Ġapplication": 3660,
      "icip": 3661,
      "Ġrefer": 3662,
      "Ġconvers": 3663,
      "arent": 3664,
      "Ġincluded": 3665,
      "Ġhot": 3666,
      "cause": 3667,
      "ought": 3668,
      "uments": 3669,
      "ĠSee": 3670,
      "ĠmÃªme": 3671,
      "know": 3672,
      "ground": 3673,
      "Ġprogress": 3674,
      "agne": 3675,
      "ĠCour": 3676,
      "Ġtarget": 3677,
      "Ġstress": 3678,
      "Ġwood": 3679,
      "What": 3680,
      "Ġbenefits": 3681,
      "ĠLib": 3682,
      "Ġcommer": 3683,
      "Ġblock": 3684,
      "ĠEarth": 3685,
      "DB": 3686,
      "Ġideas": 3687,
      "lev": 3688,
      "ography": 3689,
      "Ġadm": 3690,
      "Ġleave": 3691,
      "bit": 3692,
      "inct": 3693,
      "Ġmag": 3694,
      "Ġcontain": 3695,
      "Ġmal": 3696,
      "Ġleading": 3697,
      "Ġschools": 3698,
      "elon": 3699,
      "Ġcru": 3700,
      "'d": 3701,
      "ico": 3702,
      "pite": 3703,
      "ields": 3704,
      "Ġ40": 3705,
      "ĠAc": 3706,
      "ĠamÃ©ric": 3707,
      "ky": 3708,
      "aur": 3709,
      "Ġeasily": 3710,
      "Ġprior": 3711,
      "Ġuser": 3712,
      "Ġdescribed": 3713,
      "âĶĢâĶĢ": 3714,
      "ĠSan": 3715,
      "Ã©v": 3716,
      "Ġsafe": 3717,
      "ĠDecember": 3718,
      "vest": 3719,
      "Ġsou": 3720,
      "Ġconstant": 3721,
      "?âĢĿ": 3722,
      "SB": 3723,
      "Ġfast": 3724,
      "tered": 3725,
      "Ġtask": 3726,
      "Ġforms": 3727,
      "itect": 3728,
      "cript": 3729,
      "more": 3730,
      "Ġreve": 3731,
      "Ġphil": 3732,
      "ĠAlthough": 3733,
      "Ġbott": 3734,
      "odes": 3735,
      "ĠoÃ¹": 3736,
      "ober": 3737,
      "Ġcompl": 3738,
      "ĠLou": 3739,
      "ĠAccording": 3740,
      "Ġidentify": 3741,
      "itter": 3742,
      "Ġhealthy": 3743,
      "Ġproperty": 3744,
      "Ġquickly": 3745,
      "Ġimportance": 3746,
      "Ġstrateg": 3747,
      "ga": 3748,
      "vention": 3749,
      "Ġrunning": 3750,
      "omp": 3751,
      "essages": 3752,
      "ĠSaint": 3753,
      "Ġgenerally": 3754,
      "Ġmovement": 3755,
      "Ġpurpose": 3756,
      "IC": 3757,
      "TGAA": 3758,
      "Ġadditional": 3759,
      "cles": 3760,
      "NA": 3761,
      "aught": 3762,
      "Ġsea": 3763,
      "ĠIndian": 3764,
      "ession": 3765,
      "Ġ2015": 3766,
      "._": 3767,
      "igne": 3768,
      "TGGG": 3769,
      "gment": 3770,
      "Ġperfect": 3771,
      "Ġoffice": 3772,
      "yth": 3773,
      "Ġcomment": 3774,
      "was": 3775,
      "Ġfile": 3776,
      "ocks": 3777,
      "Ġ2012": 3778,
      "ĠAut": 3779,
      "Ġvariety": 3780,
      "Âł": 3781,
      "ĠScience": 3782,
      "Ġcentral": 3783,
      "Ġeveryone": 3784,
      "Ġdistance": 3785,
      "Ġtend": 3786,
      "ancy": 3787,
      "do": 3788,
      "Ġsafety": 3789,
      "ĠJuly": 3790,
      "rial": 3791,
      "RO": 3792,
      "ya": 3793,
      "Ġpolice": 3794,
      "aise": 3795,
      "Ġinput": 3796,
      "ĠInst": 3797,
      "Ġdirection": 3798,
      "Ġacqu": 3799,
      "Ġgives": 3800,
      "Ġinstit": 3801,
      "Ġtools": 3802,
      "IT": 3803,
      "ef": 3804,
      "ĠMich": 3805,
      "asion": 3806,
      "Ġgoal": 3807,
      "Ġprograms": 3808,
      "Ġdirectly": 3809,
      "user": 3810,
      "Ġturned": 3811,
      "Ġalgorith": 3812,
      "Ġtrade": 3813,
      "Ġsequ": 3814,
      "ĠEven": 3815,
      "rix": 3816,
      "But": 3817,
      "Ġequal": 3818,
      "osing": 3819,
      "ĠApril": 3820,
      "Ġwanted": 3821,
      "ĠResearch": 3822,
      "Ġgames": 3823,
      "Ġoptim": 3824,
      "Ġfear": 3825,
      "Ġwatch": 3826,
      "GAGG": 3827,
      "Ġaltern": 3828,
      "Ġwait": 3829,
      "Ġsymb": 3830,
      "Ġaspect": 3831,
      "Ġsources": 3832,
      "uration": 3833,
      "system": 3834,
      "ĠSince": 3835,
      "If": 3836,
      "FE": 3837,
      "ĠPaul": 3838,
      "Ġharm": 3839,
      "ovember": 3840,
      "ech": 3841,
      "itte": 3842,
      "Ġarriv": 3843,
      "aign": 3844,
      "Ġimag": 3845,
      "ĠEuropean": 3846,
      "ruit": 3847,
      "ped": 3848,
      "Ġones": 3849,
      "ville": 3850,
      "Ġnearly": 3851,
      "Ġwrong": 3852,
      "Ġcontext": 3853,
      "Ġessential": 3854,
      "Ġwid": 3855,
      "Ġcaused": 3856,
      "Ġthinking": 3857,
      "Ġkids": 3858,
      "Ġinfluence": 3859,
      "ĠServ": 3860,
      "ĠAng": 3861,
      "Ġalthough": 3862,
      "Ġcam": 3863,
      "Ġmid": 3864,
      "Ġfigure": 3865,
      "ĠHol": 3866,
      "ilies": 3867,
      "berg": 3868,
      "Ġallows": 3869,
      "Ġqual": 3870,
      "actions": 3871,
      "Ġweeks": 3872,
      "Ġlooked": 3873,
      "ba": 3874,
      "gram": 3875,
      "Ġpret": 3876,
      "aling": 3877,
      "www": 3878,
      "ki": 3879,
      "ĠNews": 3880,
      "Ġlif": 3881,
      "Ġparty": 3882,
      "Ġeat": 3883,
      "ãĢ": 3884,
      "Ġstyle": 3885,
      "cast": 3886,
      "Ġappropri": 3887,
      "ï¼Į": 3888,
      "istry": 3889,
      "ĠCong": 3890,
      "Ġproduced": 3891,
      "Ġevalu": 3892,
      "lor": 3893,
      "ĠJames": 3894,
      "ING": 3895,
      "round": 3896,
      "Ġgard": 3897,
      "Ġunit": 3898,
      "FD": 3899,
      "ieu": 3900,
      "Ġinsp": 3901,
      "Ġmount": 3902,
      "Ġterrit": 3903,
      "ricult": 3904,
      "ĠMark": 3905,
      "Ġconv": 3906,
      "ĠÃ©c": 3907,
      "Ġcorrespond": 3908,
      "Ġassum": 3909,
      "ĠMal": 3910,
      "ĠÃ©tait": 3911,
      "clusion": 3912,
      "isf": 3913,
      "Ġ2011": 3914,
      "Ġheard": 3915,
      "Ġnegative": 3916,
      "ronic": 3917,
      "Ġadapt": 3918,
      "load": 3919,
      "rim": 3920,
      "Ġlarger": 3921,
      "Ġpen": 3922,
      "Ġwest": 3923,
      "Ġachieve": 3924,
      "Ġtraditional": 3925,
      "atur": 3926,
      "Ġcro": 3927,
      "Ġdied": 3928,
      "Ġyourself": 3929,
      "Ġcritical": 3930,
      "Ġprivate": 3931,
      "lear": 3932,
      "place": 3933,
      "Ġwebsite": 3934,
      "Ġmodels": 3935,
      "ĠCaliforn": 3936,
      "Ġround": 3937,
      "Ġdetermine": 3938,
      "insi": 3939,
      "ĠHen": 3940,
      "alled": 3941,
      "col": 3942,
      "Ġcarry": 3943,
      "Ġvot": 3944,
      "Ġpredict": 3945,
      "Ġhelps": 3946,
      "semb": 3947,
      "iant": 3948,
      "Ġbound": 3949,
      "ournal": 3950,
      "Ġsteps": 3951,
      "Ġfair": 3952,
      "bi": 3953,
      "Ġpick": 3954,
      "Ġnumer": 3955,
      "There": 3956,
      "Ġcontribut": 3957,
      "Ġknew": 3958,
      "Ġworth": 3959,
      "ĠDavid": 3960,
      "Ġ%": 3961,
      "stitute": 3962,
      "key": 3963,
      "Ġking": 3964,
      "iring": 3965,
      "Ġbeginning": 3966,
      "tes": 3967,
      "Ġ2013": 3968,
      "ny": 3969,
      "Ġfavor": 3970,
      "ester": 3971,
      "Ġbox": 3972,
      "Ġ26": 3973,
      "Ġgrowing": 3974,
      "Ġpp": 3975,
      "Ġpan": 3976,
      "aren": 3977,
      "Ġfollowed": 3978,
      "IH": 3979,
      "ynam": 3980,
      "Ġarm": 3981,
      "clus": 3982,
      "ĠUse": 3983,
      "Ġremain": 3984,
      "FB": 3985,
      "Ġdoub": 3986,
      "ferences": 3987,
      "Ġconcent": 3988,
      "Ġfit": 3989,
      "ĠDepartment": 3990,
      "Ġep": 3991,
      "Ġdaily": 3992,
      "AM": 3993,
      "nÃ©": 3994,
      "Ġwide": 3995,
      "ĠRed": 3996,
      "Ġforces": 3997,
      "rief": 3998,
      "ĠBlack": 3999,
      "Ġhyd": 4000,
      "Ġwild": 4001,
      "ĠDem": 4002,
      "isse": 4003,
      "Ġtree": 4004,
      "ĠPark": 4005,
      "Ġlegal": 4006,
      "rÃ©": 4007,
      "Ġmanufact": 4008,
      "ĠGra": 4009,
      "Ġbirth": 4010,
      "ĠGree": 4011,
      "Ġpoll": 4012,
      "aient": 4013,
      "Ġbra": 4014,
      "ĠRich": 4015,
      "ĠTHE": 4016,
      "resh": 4017,
      "ĠDay": 4018,
      "Ġrou": 4019,
      "Ġlimit": 4020,
      "Ġuseful": 4021,
      "Ġeye": 4022,
      "Ġadop": 4023,
      "Ġcele": 4024,
      "Ġgold": 4025,
      "andom": 4026,
      "omas": 4027,
      "Ġrat": 4028,
      "dered": 4029,
      "ĠGreat": 4030,
      "To": 4031,
      "Ġsch": 4032,
      "Ġlaws": 4033,
      "Ġ28": 4034,
      "za": 4035,
      "illing": 4036,
      "Ġswe": 4037,
      "Ġbeyond": 4038,
      "isÃ©": 4039,
      "Ġalone": 4040,
      "ĠNovember": 4041,
      "ĠGeneral": 4042,
      "Ġbank": 4043,
      "Ġ27": 4044,
      "ĠChristian": 4045,
      "Ġstatement": 4046,
      "ĠPal": 4047,
      "Ġmiles": 4048,
      "Ġsust": 4049,
      "Ġdemonstr": 4050,
      "Ġsche": 4051,
      "rapy": 4052,
      "Ġmorning": 4053,
      "Ġcompared": 4054,
      "Ġcand": 4055,
      "Ġprote": 4056,
      "http": 4057,
      "Ġmedic": 4058,
      "Ġgoes": 4059,
      "Ġtransport": 4060,
      "Ġapplications": 4061,
      "Ġresearchers": 4062,
      "Ġsaying": 4063,
      "Ġleur": 4064,
      "OS": 4065,
      "Ġbuy": 4066,
      "ateur": 4067,
      "Ġelement": 4068,
      "aa": 4069,
      "Ġnote": 4070,
      "uv": 4071,
      "Ġ2009": 4072,
      "Ġcauses": 4073,
      "ĠSam": 4074,
      "ĠOctober": 4075,
      "Ġtransform": 4076,
      "Ġveh": 4077,
      "ĠInternational": 4078,
      "Ġfelt": 4079,
      "uman": 4080,
      "Ġwarm": 4081,
      "ĠCanada": 4082,
      "ĠPress": 4083,
      "idents": 4084,
      "Ġadvant": 4085,
      "from": 4086,
      "Ġmulti": 4087,
      "Ġcharg": 4088,
      "Ġchemical": 4089,
      "Ġplaces": 4090,
      "Ġreach": 4091,
      "Ġcompar": 4092,
      "ĠÃ©g": 4093,
      "Ġsoil": 4094,
      "Ġprec": 4095,
      "ĠgÃ©n": 4096,
      "well": 4097,
      "rich": 4098,
      "Ġstar": 4099,
      "Ġdiet": 4100,
      "enge": 4101,
      "ĠAlex": 4102,
      "Â°": 4103,
      "equ": 4104,
      "ript": 4105,
      "ĠSer": 4106,
      "izes": 4107,
      "ĠEduc": 4108,
      "ĠPost": 4109,
      "Ġmember": 4110,
      "body": 4111,
      "oes": 4112,
      "ĠLear": 4113,
      "Ġexpress": 4114,
      "Ġenvironmental": 4115,
      "Ġspirit": 4116,
      "Ġtechniques": 4117,
      "iency": 4118,
      "Ġcenter": 4119,
      "ĠBro": 4120,
      "Ġphilos": 4121,
      "ios": 4122,
      "Ġperhaps": 4123,
      "ervation": 4124,
      "Ã¨ne": 4125,
      "ĠDuring": 4126,
      "aled": 4127,
      "Ġbab": 4128,
      "Ġ2008": 4129,
      "TCAA": 4130,
      "Ġactive": 4131,
      "ĠSeptember": 4132,
      "Ġannoun": 4133,
      "Ġrepe": 4134,
      "ĠCenter": 4135,
      "Ġchance": 4136,
      "nS": 4137,
      "ĠÃª": 4138,
      "Ġtool": 4139,
      "ĠGeorge": 4140,
      "Ġeth": 4141,
      "ĠAlso": 4142,
      "GTGA": 4143,
      "Ġstaff": 4144,
      "Ġcold": 4145,
      "Ġmaxim": 4146,
      "Ġdegree": 4147,
      "Ġtrack": 4148,
      "imens": 4149,
      "outhern": 4150,
      "ND": 4151,
      "ĠAre": 4152,
      "ande": 4153,
      "Ġ(\"": 4154,
      "Ġesp": 4155,
      "}]": 4156,
      "Ġnorth": 4157,
      "Ġconstruction": 4158,
      "isme": 4159,
      "Ġcapac": 4160,
      "Ġpatient": 4161,
      "Ġox": 4162,
      "ĠCommun": 4163,
      "Ġbillion": 4164,
      "erre": 4165,
      "iful": 4166,
      "ĠBel": 4167,
      "Ġmemory": 4168,
      "Ġestablished": 4169,
      "Ġsurpr": 4170,
      "comp": 4171,
      "Ġmatch": 4172,
      "Ġcra": 4173,
      "Ġdanger": 4174,
      "Ġdistribution": 4175,
      "CAGA": 4176,
      "Ġintegr": 4177,
      "enne": 4178,
      "leg": 4179,
      "term": 4180,
      "Ġweb": 4181,
      "Ġrock": 4182,
      "itable": 4183,
      "ruary": 4184,
      "Ġupd": 4185,
      "ĠEast": 4186,
      "ĠHistory": 4187,
      "tical": 4188,
      "En": 4189,
      "Ġnamed": 4190,
      "Ġmiddle": 4191,
      "Ġrules": 4192,
      "Â»": 4193,
      "Åĵ": 4194,
      "roy": 4195,
      "ano": 4196,
      "ĠGovern": 4197,
      "Ġremember": 4198,
      "itle": 4199,
      "Ġcolon": 4200,
      "rig": 4201,
      "Ġsummer": 4202,
      "change": 4203,
      "ago": 4204,
      "ĠPort": 4205,
      "Ġworked": 4206,
      "ĠMont": 4207,
      "ĠCounty": 4208,
      "igr": 4209,
      "Ġju": 4210,
      "Ġopportunity": 4211,
      "LL": 4212,
      "Ġ2007": 4213,
      "Ġhighly": 4214,
      "Ġ2014": 4215,
      "Ġteachers": 4216,
      "Ġdamage": 4217,
      "Ġstage": 4218,
      "Ġelectric": 4219,
      "ĠJes": 4220,
      "Ġexamples": 4221,
      "Ġoppos": 4222,
      "Ġbreat": 4223,
      "Ġtoward": 4224,
      "Ġdepend": 4225,
      "Ġemp": 4226,
      "Ġprimary": 4227,
      "Ġbul": 4228,
      "Ġparam": 4229,
      "Ġmoving": 4230,
      "gra": 4231,
      "no": 4232,
      "entially": 4233,
      "Ġnombre": 4234,
      "hab": 4235,
      "Ġearlier": 4236,
      "ternal": 4237,
      "Ġcommunication": 4238,
      "aker": 4239,
      "Ġstrength": 4240,
      "}{": 4241,
      "Ġgradu": 4242,
      "Ġborn": 4243,
      "Ġdoor": 4244,
      "Ġapr": 4245,
      "nel": 4246,
      "hest": 4247,
      "Ġanimal": 4248,
      "Ġrule": 4249,
      "Ġja": 4250,
      "ube": 4251,
      "ĠrÃ©gion": 4252,
      "aj": 4253,
      "aste": 4254,
      "Ġinitial": 4255,
      "Ġpeut": 4256,
      "Ġhear": 4257,
      "gency": 4258,
      "Ġteaching": 4259,
      "rier": 4260,
      "assistant": 4261,
      "igure": 4262,
      "Ġvia": 4263,
      "ĠAss": 4264,
      "Ġpal": 4265,
      "Ġlimited": 4266,
      "Ġprofessional": 4267,
      "ctors": 4268,
      "Ġcontinued": 4269,
      "ĠSol": 4270,
      "ĠAir": 4271,
      "Ġlabor": 4272,
      "Ġmicro": 4273,
      "Ġcry": 4274,
      "Ġfamilies": 4275,
      "wood": 4276,
      "Ġpassed": 4277,
      "Ġletter": 4278,
      "Ġmental": 4279,
      "Ġrob": 4280,
      "Ġplat": 4281,
      "Ġdiagn": 4282,
      "On": 4283,
      "ĠInter": 4284,
      "ipe": 4285,
      "anish": 4286,
      "Ġoccup": 4287,
      "Ġremains": 4288,
      "rices": 4289,
      "ĠĠĠĠĠĠĠĠĠĠĠĠĠĠĠĠĠĠĠĠĠĠĠĠĠĠĠĠĠĠĠĠ": 4290,
      "ï¬": 4291,
      "For": 4292,
      "Ġneigh": 4293,
      "ander": 4294,
      "ĠÃªtre": 4295,
      "known": 4296,
      "inese": 4297,
      "Ġhar": 4298,
      "Ġallowed": 4299,
      "Ġsouth": 4300,
      "estion": 4301,
      "ĠSur": 4302,
      "iance": 4303,
      "Ġmachine": 4304,
      "ospital": 4305,
      "cious": 4306,
      "CTCA": 4307,
      "Ġcosts": 4308,
      "Ġrespond": 4309,
      "ingu": 4310,
      "ael": 4311,
      "ilit": 4312,
      "Ġinteresting": 4313,
      "ente": 4314,
      "Ġdivid": 4315,
      "Ġoutput": 4316,
      "ĠMex": 4317,
      "Ġcontract": 4318,
      "ordin": 4319,
      "Ġbecomes": 4320,
      "Ġproced": 4321,
      "Ġcampaign": 4322,
      "Ġwhom": 4323,
      "ribute": 4324,
      "ĠTechn": 4325,
      "Ġfort": 4326,
      "Ġwonder": 4327,
      "Ġrates": 4328,
      "Ġcontains": 4329,
      "uries": 4330,
      "Ġchoose": 4331,
      "{\"": 4332,
      "Ġboard": 4333,
      "ĠSystem": 4334,
      "unction": 4335,
      "itz": 4336,
      "**:": 4337,
      "Ġpurch": 4338,
      "Ġcarbon": 4339,
      "ĠVir": 4340,
      "Ġhyp": 4341,
      "Ġmob": 4342,
      "Ġready": 4343,
      "Ġfeature": 4344,
      "Ġesc": 4345,
      "ĠMiss": 4346,
      "Ġcours": 4347,
      "ĠSen": 4348,
      "Ġpartie": 4349,
      "gu": 4350,
      "ĠChurch": 4351,
      "Ġcateg": 4352,
      "Ġult": 4353,
      "ĠAfrica": 4354,
      "ĠAssoci": 4355,
      "Ġbasis": 4356,
      "ĠRel": 4357,
      "Le": 4358,
      "Ġplans": 4359,
      "ĠÃ©galement": 4360,
      "ĠWhite": 4361,
      "IV": 4362,
      "Ġainsi": 4363,
      "Ġtrees": 4364,
      "100": 4365,
      "Ġenter": 4366,
      "izations": 4367,
      "Ġdigital": 4368,
      "Ġdisplay": 4369,
      "ded": 4370,
      "!\"": 4371,
      "Ġfactor": 4372,
      "Ġspect": 4373,
      "ĠRepublic": 4374,
      "ĠPeople": 4375,
      "Ġeight": 4376,
      "force": 4377,
      "Ġconstruct": 4378,
      "ulate": 4379,
      "ĠMart": 4380,
      "Ġpu": 4381,
      "ĠOver": 4382,
      "ĠBra": 4383,
      "orthern": 4384,
      "ibly": 4385,
      "ĠCalifornia": 4386,
      "Ġanyone": 4387,
      "Ġallem": 4388,
      "Ġjournal": 4389,
      "Ġdetails": 4390,
      "CCTT": 4391,
      "tra": 4392,
      "ĠaprÃ¨s": 4393,
      "Ġrecently": 4394,
      "kin": 4395,
      "rees": 4396,
      "ĠDec": 4397,
      "point": 4398,
      "Ġcreating": 4399,
      "Ġguide": 4400,
      "Ġbeg": 4401,
      "Ġur": 4402,
      "Ġmeeting": 4403,
      "Ġu": 4404,
      "Ġchoice": 4405,
      "Ġpuis": 4406,
      "ĠMath": 4407,
      "CTGA": 4408,
      "Ġdisp": 4409,
      "Ġrequires": 4410,
      "ĠLaw": 4411,
      "----------------": 4412,
      "Ġ29": 4413,
      "Ġenh": 4414,
      "Ġusers": 4415,
      "Ex": 4416,
      "Ġforest": 4417,
      "Ġdrink": 4418,
      "ĠAu": 4419,
      "Ġmut": 4420,
      "fa": 4421,
      "Ġpeu": 4422,
      "gn": 4423,
      "abet": 4424,
      "Ġdry": 4425,
      "CH": 4426,
      "Ġdecre": 4427,
      "endant": 4428,
      "ias": 4429,
      "erate": 4430,
      "Ġhous": 4431,
      "vol": 4432,
      "].": 4433,
      "Ġ60": 4434,
      "Ġproperties": 4435,
      "umber": 4436,
      "ida": 4437,
      "Ġreceive": 4438,
      "Ġcurrently": 4439,
      "messages": 4440,
      "Ġrare": 4441,
      "lant": 4442,
      "Pro": 4443,
      "Ġefforts": 4444,
      "Ġstrugg": 4445,
      "Ġnor": 4446,
      "Ġstock": 4447,
      "Ġseven": 4448,
      "ĠEach": 4449,
      "Ġprojects": 4450,
      "Ġopin": 4451,
      "ĠFebruary": 4452,
      "oses": 4453,
      "ĠBecause": 4454,
      "ategy": 4455,
      "Ġpays": 4456,
      "vis": 4457,
      "spe": 4458,
      "Ġscientific": 4459,
      "Ġfle": 4460,
      "Ġbed": 4461,
      "ocal": 4462,
      "Ġwife": 4463,
      "Ġcitiz": 4464,
      "Ġvirt": 4465,
      "Ġ[{\"": 4466,
      "rupt": 4467,
      "Ġvoice": 4468,
      "Ġpow": 4469,
      "iens": 4470,
      "Ġpeace": 4471,
      "ĠsituÃ©e": 4472,
      "och": 4473,
      "Ġsupply": 4474,
      "Ġoperations": 4475,
      "Ġancient": 4476,
      "ĠProf": 4477,
      "airs": 4478,
      "Ġhttp": 4479,
      "Ġemail": 4480,
      "Ġreb": 4481,
      "ogle": 4482,
      "iny": 4483,
      "isms": 4484,
      "Ġestablish": 4485,
      "_{": 4486,
      "CT": 4487,
      "ĠUnder": 4488,
      "reme": 4489,
      "Ġload": 4490,
      "Ġjou": 4491,
      "Ġnav": 4492,
      "ologies": 4493,
      "ulated": 4494,
      "ype": 4495,
      "ĠInc": 4496,
      "ĠUp": 4497,
      "Ġlargest": 4498,
      "Ġassign": 4499,
      "Ġtransm": 4500,
      "ĠChild": 4501,
      "Ġgiving": 4502,
      "Ġlands": 4503,
      "uls": 4504,
      "LE": 4505,
      "],": 4506,
      "Ġappropriate": 4507,
      "Ġsen": 4508,
      "Ġcompletely": 4509,
      "GCTT": 4510,
      "Ġdeveloping": 4511,
      "Ġnames": 4512,
      "Ġsac": 4513,
      "Ġpiece": 4514,
      "Ġsong": 4515,
      "ĠSoci": 4516,
      "Ġunivers": 4517,
      "ĠYear": 4518,
      "ĠBu": 4519,
      "Ġcentre": 4520,
      "Ġseemed": 4521,
      "Ġexactly": 4522,
      "ensity": 4523,
      "Ġforeign": 4524,
      "comm": 4525,
      "opy": 4526,
      "igen": 4527,
      "Ġchallenges": 4528,
      "utive": 4529,
      "active": 4530,
      "Ġhol": 4531,
      "Ġtruth": 4532,
      "Ġillustr": 4533,
      "dis": 4534,
      "Ġproviding": 4535,
      "ĠJack": 4536,
      "ĠEvery": 4537,
      "Ġcin": 4538,
      "Ġeffort": 4539,
      "ĠCharles": 4540,
      "roduction": 4541,
      "ĠDevelop": 4542,
      "bour": 4543,
      "ĠRoman": 4544,
      "Ġsuccessful": 4545,
      "phas": 4546,
      "ams": 4547,
      "Ġinstance": 4548,
      "ĠJean": 4549,
      "ffect": 4550,
      "Ġimages": 4551,
      "ĠfranÃ§ais": 4552,
      "Ġplaced": 4553,
      "Ġorganization": 4554,
      "cm": 4555,
      "Ġapplied": 4556,
      "Ġvan": 4557,
      "iling": 4558,
      "Ġconsequ": 4559,
      "ĠMac": 4560,
      "cher": 4561,
      "ĠAmericans": 4562,
      "How": 4563,
      "rice": 4564,
      "Ġchanged": 4565,
      "oo": 4566,
      "TAAAA": 4567,
      "Ġeconomy": 4568,
      "Ġexercise": 4569,
      "ĠWil": 4570,
      "frac": 4571,
      "Ġacid": 4572,
      "odies": 4573,
      "Ġalors": 4574,
      "Ġrise": 4575,
      "Ġexplain": 4576,
      "Ġcool": 4577,
      "ĠChinese": 4578,
      "ST": 4579,
      "Ġtim": 4580,
      "De": 4581,
      "Ġtrois": 4582,
      "Ġfine": 4583,
      "ĠCollege": 4584,
      "water": 4585,
      "Ġprotection": 4586,
      "RI": 4587,
      "Ġpowerful": 4588,
      "Ġcollection": 4589,
      "math": 4590,
      "Ġplayers": 4591,
      "onn": 4592,
      "Ġshape": 4593,
      "nA": 4594,
      "Ġblue": 4595,
      "Ġinteg": 4596,
      "Ġanti": 4597,
      "ĠtrÃ¨s": 4598,
      "Ġtrust": 4599,
      "Ġsolutions": 4600,
      "Ġ31": 4601,
      "Ġing": 4602,
      "su": 4603,
      "Ġhit": 4604,
      "Ġdefined": 4605,
      "ado": 4606,
      "Ġtesting": 4607,
      "Ġfamille": 4608,
      "ĠOF": 4609,
      "urning": 4610,
      "Ġpremier": 4611,
      "Ġsatisf": 4612,
      "band": 4613,
      "Ġpair": 4614,
      "Ġreasons": 4615,
      "rer": 4616,
      "xi": 4617,
      "Ġerror": 4618,
      "Ġleaves": 4619,
      "Ġdoll": 4620,
      "ĠFe": 4621,
      "Ġcompre": 4622,
      "Ġhop": 4623,
      "Ġsecret": 4624,
      "Ġcert": 4625,
      "ava": 4626,
      "Ġtal": 4627,
      "orial": 4628,
      "Ġmessage": 4629,
      "ario": 4630,
      "ouv": 4631,
      "Ġrout": 4632,
      "amm": 4633,
      "ĠJournal": 4634,
      "Ġgun": 4635,
      "Ġactual": 4636,
      "elles": 4637,
      "cean": 4638,
      "No": 4639,
      "ĠBook": 4640,
      "Ġdouble": 4641,
      "Ġobjects": 4642,
      "Ġhair": 4643,
      "Ġcareer": 4644,
      "Ġextrem": 4645,
      "under": 4646,
      "iled": 4647,
      "wers": 4648,
      "ĠDan": 4649,
      "Ġdoctor": 4650,
      "ĠRiver": 4651,
      "Ġcharge": 4652,
      "\")": 4653,
      "Ġstraight": 4654,
      "reed": 4655,
      "ĠMet": 4656,
      "pen": 4657,
      "ĠAfrican": 4658,
      "Ġhour": 4659,
      "field": 4660,
      "lease": 4661,
      "ĠGermany": 4662,
      "gypt": 4663,
      "ĠLord": 4664,
      "Ġtests": 4665,
      "Ġdevice": 4666,
      "Ġoption": 4667,
      "ĠTut": 4668,
      "ĠMary": 4669,
      "cos": 4670,
      "Ġintellig": 4671,
      "CCTG": 4672,
      "Ġvit": 4673,
      "apers": 4674,
      "Ġteacher": 4675,
      "Ġwat": 4676,
      "Ġbien": 4677,
      "ĠVol": 4678,
      "Ġpretty": 4679,
      "CTCC": 4680,
      "ĠArch": 4681,
      "down": 4682,
      "Ġsmaller": 4683,
      "sec": 4684,
      "Ġscale": 4685,
      "ĠCoun": 4686,
      "Ġquarter": 4687,
      "Ġpractices": 4688,
      "ĠLouis": 4689,
      "ĠOff": 4690,
      "rab": 4691,
      "ĠrÃ©al": 4692,
      "asse": 4693,
      "othe": 4694,
      "Ġshowed": 4695,
      "cd": 4696,
      "Ġmoved": 4697,
      "Ġlors": 4698,
      "rael": 4699,
      "Cl": 4700,
      "Ġvisual": 4701,
      "ĠĠĠĠĠĠĠĠĠ": 4702,
      "Ġstarting": 4703,
      "Ġsquare": 4704,
      "Ġworkers": 4705,
      "Ġcommunities": 4706,
      "example": 4707,
      "Ġkept": 4708,
      "________": 4709,
      "iments": 4710,
      "Ġplayed": 4711,
      "urance": 4712,
      "Ġ2000": 4713,
      "Ġrapid": 4714,
      "Ġchief": 4715,
      "ĠHel": 4716,
      "GGAA": 4717,
      "Ġmaintain": 4718,
      "enth": 4719,
      "Ġprocesses": 4720,
      "osen": 4721,
      "Ġplease": 4722,
      "Ġequation": 4723,
      "Ġapproxim": 4724,
      "Ġ2006": 4725,
      "erg": 4726,
      "Ġactions": 4727,
      "CATG": 4728,
      "}$": 4729,
      "ĠCam": 4730,
      "Ġtried": 4731,
      "van": 4732,
      "ĠClass": 4733,
      "Ġarchitect": 4734,
      "Ġinstruct": 4735,
      "Ġoverall": 4736,
      "When": 4737,
      "encies": 4738,
      "eters": 4739,
      "ĠDel": 4740,
      "ĠRobert": 4741,
      "raw": 4742,
      "abilities": 4743,
      "Ġinstru": 4744,
      "oted": 4745,
      "Ġbran": 4746,
      "ipment": 4747,
      "overy": 4748,
      "iat": 4749,
      "cell": 4750,
      "Ġincor": 4751,
      "Ġhappen": 4752,
      "ĠOut": 4753,
      "Ġstories": 4754,
      "arian": 4755,
      "ĠBen": 4756,
      "rm": 4757,
      "bf": 4758,
      "}\\": 4759,
      "ĠUK": 4760,
      "Ġdivers": 4761,
      "Ġmission": 4762,
      "hist": 4763,
      "Ġchurch": 4764,
      "Ġfully": 4765,
      "Ġgets": 4766,
      "Ġreports": 4767,
      "Ġstation": 4768,
      "Ġcook": 4769,
      "Ġcommunic": 4770,
      "Ġsurround": 4771,
      "ception": 4772,
      "cip": 4773,
      "Ġkilled": 4774,
      "Ġdevices": 4775,
      "Ġslight": 4776,
      "ieurs": 4777,
      "Ġcast": 4778,
      "olf": 4779,
      "inger": 4780,
      "ĠWell": 4781,
      "mark": 4782,
      "Ġclasses": 4783,
      "ĠThomas": 4784,
      "ault": 4785,
      "tÃ©": 4786,
      "TS": 4787,
      "ĠTur": 4788,
      "Ġrecon": 4789,
      "Ġclin": 4790,
      "unk": 4791,
      "Ġoptions": 4792,
      "ĠSal": 4793,
      "Ġsave": 4794,
      "ees": 4795,
      "aughter": 4796,
      "Ġdepuis": 4797,
      "PS": 4798,
      "GCAA": 4799,
      "othes": 4800,
      "Ġmeasures": 4801,
      "Ġbrother": 4802,
      "ĠUnion": 4803,
      "Ġclub": 4804,
      "?\\": 4805,
      "ĠĠĠĠĠĠĠĠĠĠĠ": 4806,
      "Ġrot": 4807,
      "oyal": 4808,
      "Ġ2020": 4809,
      "Ġimmediately": 4810,
      "Ph": 4811,
      "isÃ©e": 4812,
      "Ġrich": 4813,
      "Ġreligious": 4814,
      "estic": 4815,
      "Ġfederal": 4816,
      "Ġformed": 4817,
      "Ġexpos": 4818,
      "ums": 4819,
      "Ġlocated": 4820,
      "Ġtouch": 4821,
      "Ġroll": 4822,
      "Ġapply": 4823,
      "ĠNet": 4824,
      "iller": 4825,
      "ittee": 4826,
      "Ġfram": 4827,
      "ĠPage": 4828,
      "Ġsusp": 4829,
      "ĠAdd": 4830,
      "Ġsam": 4831,
      "stitution": 4832,
      "Ġcollabor": 4833,
      "Ġsignal": 4834,
      "zy": 4835,
      "Ġkn": 4836,
      "Ġlearned": 4837,
      "rows": 4838,
      "Ġexpression": 4839,
      "inn": 4840,
      "TCTA": 4841,
      "ĠJesus": 4842,
      "Ġrandom": 4843,
      "Ġfeeling": 4844,
      "ĠThus": 4845,
      "Ġalgebra": 4846,
      "Ġvolume": 4847,
      "Ġcultural": 4848,
      "Ġprofession": 4849,
      "Ġscen": 4850,
      "ĠIN": 4851,
      "Ġbalance": 4852,
      "ĠInstitute": 4853,
      "Ġappears": 4854,
      "Ġveget": 4855,
      "Ġconflic": 4856,
      "Ġ\"\"},": 4857,
      "ĠTheir": 4858,
      "Ġrecommend": 4859,
      "ĠGreen": 4860,
      "Ġwaste": 4861,
      "Ġmist": 4862,
      "Ġign": 4863,
      "Ġcontroll": 4864,
      "Ġcolumn": 4865,
      "ĠFriday": 4866,
      "Ġpicture": 4867,
      "ĠRem": 4868,
      "Ġmentioned": 4869,
      "pective": 4870,
      "issions": 4871,
      "Ġdynam": 4872,
      "Ġenem": 4873,
      "Ġweather": 4874,
      "Ġprison": 4875,
      "Ġefficient": 4876,
      "',": 4877,
      "ĠEr": 4878,
      "ï¿½ï¿½ï¿½ï¿½ï¿½ï¿½": 4879,
      "ĠMad": 4880,
      "Ġcarried": 4881,
      "Ġscientists": 4882,
      "rite": 4883,
      "Ġdiscussion": 4884,
      "Ġlocation": 4885,
      "Ġcelebr": 4886,
      "Ġpresence": 4887,
      "care": 4888,
      "Ġfresh": 4889,
      "GCTG": 4890,
      "pping": 4891,
      "Ġbattle": 4892,
      "ua": 4893,
      "what": 4894,
      "Ġsetting": 4895,
      "Ġpresented": 4896,
      "Ġces": 4897,
      "ini": 4898,
      "Ġnuc": 4899,
      "Ġgoals": 4900,
      "Ġexpert": 4901,
      "Ġhistorical": 4902,
      "ĠOnce": 4903,
      "ĠCur": 4904,
      "ometry": 4905,
      "Ġcredit": 4906,
      "Ġtypically": 4907,
      "Ġconver": 4908,
      "oration": 4909,
      "omy": 4910,
      "Ġinterview": 4911,
      "Ġsin": 4912,
      "Ã©tÃ©": 4913,
      "Ġcoast": 4914,
      "udes": 4915,
      "Ġice": 4916,
      "Ġheavy": 4917,
      "Ġreached": 4918,
      "Ġfol": 4919,
      "ria": 4920,
      "house": 4921,
      "Ġvote": 4922,
      "ĠTwo": 4923,
      "Ġdecided": 4924,
      "Ġfell": 4925,
      "ĠÃ©p": 4926,
      "ĠDi": 4927,
      "Ġap": 4928,
      "nd": 4929,
      "Ġadvanced": 4930,
      "Ġplatform": 4931,
      "ĠEducation": 4932,
      "Ġbenefit": 4933,
      "Ġ$\\": 4934,
      "ubl": 4935,
      "venue": 4936,
      "Ġsustain": 4937,
      "het": 4938,
      "ĠAnother": 4939,
      "Ġfoods": 4940,
      "Ġcouple": 4941,
      "Ġstream": 4942,
      "Ġacadem": 4943,
      "Ġexpand": 4944,
      "Ġoffers": 4945,
      "ih": 4946,
      "Ġbud": 4947,
      "irect": 4948,
      "riving": 4949,
      "ja": 4950,
      "ige": 4951,
      "ĠCongress": 4952,
      "Ġbacter": 4953,
      "rag": 4954,
      "Ġattract": 4955,
      "ĠSum": 4956,
      "Ġinterp": 4957,
      "ĠProgram": 4958,
      "idel": 4959,
      "Ġsevere": 4960,
      "ev": 4961,
      "Ġcas": 4962,
      "Ġreference": 4963,
      "Ġtransfer": 4964,
      "Ġinnov": 4965,
      "Ġserve": 4966,
      "aud": 4967,
      "Ġurb": 4968,
      "Ġfond": 4969,
      "Ġship": 4970,
      "Ġcommercial": 4971,
      "Ġhuge": 4972,
      "Ġdrive": 4973,
      "Ġstore": 4974,
      "Ġadjust": 4975,
      "Ġsites": 4976,
      "rical": 4977,
      "Ġcollege": 4978,
      "TCCA": 4979,
      "Ġexisting": 4980,
      "Ġtitle": 4981,
      "vail": 4982,
      "SS": 4983,
      "Ġvillage": 4984,
      "ext": 4985,
      "ĠTop": 4986,
      "Ġargument": 4987,
      "ĠJer": 4988,
      "Ġrace": 4989,
      "Ġgain": 4990,
      "Ġdomin": 4991,
      "Ġdistrict": 4992,
      "Ġplaying": 4993,
      "otic": 4994,
      "Ġreleased": 4995,
      "ĠAnt": 4996,
      "Ġlooks": 4997,
      "Is": 4998,
      "itÃ©s": 4999,
      "ĠLat": 5000,
      "ĠBay": 5001,
      "ĠdÃ©part": 5002,
      "Ġmole": 5003,
      "Ġessay": 5004,
      "Ġincome": 5005,
      "Ġresponsible": 5006,
      "sub": 5007,
      "Ġmur": 5008,
      "cel": 5009,
      "atever": 5010,
      "Ġmouth": 5011,
      "CCAA": 5012,
      "Ġolder": 5013,
      "Ġcel": 5014,
      "Ġnord": 5015,
      "coh": 5016,
      "rian": 5017,
      "ĠannÃ©es": 5018,
      "Ġwinter": 5019,
      "ĠÃīt": 5020,
      "ĠIsrael": 5021,
      "life": 5022,
      "ping": 5023,
      "rog": 5024,
      "Ġcomprehens": 5025,
      "ĠâĢ¦": 5026,
      "Ġemphas": 5027,
      "ĠCe": 5028,
      "ĠHam": 5029,
      "Ġnouvel": 5030,
      "ĠrÃ©s": 5031,
      "jo": 5032,
      "dG": 5033,
      "Ġfif": 5034,
      "Ġnovel": 5035,
      "Ġcandid": 5036,
      "tw": 5037,
      "ĠpremiÃ¨re": 5038,
      "EL": 5039,
      "works": 5040,
      "Ġstandards": 5041,
      "Ġrelease": 5042,
      "GATT": 5043,
      "Ġdram": 5044,
      "Ġiniti": 5045,
      "board": 5046,
      "ĠCourt": 5047,
      "gal": 5048,
      "Ġstrategies": 5049,
      "Ġweak": 5050,
      "Ġbeautiful": 5051,
      "Ġspeech": 5052,
      "Ġstrategy": 5053,
      "Ġriver": 5054,
      "ĠPM": 5055,
      "oi": 5056,
      "Ġindependent": 5057,
      "standing": 5058,
      "YW": 5059,
      "eria": 5060,
      "ĠOh": 5061,
      "Ġspl": 5062,
      "orders": 5063,
      "Ġmanner": 5064,
      "Ġmeant": 5065,
      "Ġwasn": 5066,
      "Ġfib": 5067,
      "ossible": 5068,
      "Ġhappened": 5069,
      "aper": 5070,
      "oday": 5071,
      "ĠĠĠĠĠĠ": 5072,
      "sect": 5073,
      "Ġarmy": 5074,
      "erved": 5075,
      "ĠRet": 5076,
      "Ġdiscovered": 5077,
      "Ġspent": 5078,
      "Ġded": 5079,
      "OM": 5080,
      "Ġhumans": 5081,
      "Ġspot": 5082,
      "Ġobserved": 5083,
      "IR": 5084,
      "ĠBi": 5085,
      "Ġstatus": 5086,
      "rat": 5087,
      "Ġcomments": 5088,
      "inf": 5089,
      "ani": 5090,
      "Ġtiss": 5091,
      "ady": 5092,
      "usqu": 5093,
      "ructure": 5094,
      "Ġ@": 5095,
      "issance": 5096,
      "Ã»": 5097,
      "à¤": 5098,
      "ĠJose": 5099,
      "Ġgone": 5100,
      "ouver": 5101,
      "Ġmonitor": 5102,
      "Ġbelief": 5103,
      "onne": 5104,
      "Ġcomponents": 5105,
      ".\"}]": 5106,
      "ella": 5107,
      "ĠLu": 5108,
      "Ġabsol": 5109,
      "hors": 5110,
      "asure": 5111,
      "rait": 5112,
      "rient": 5113,
      "Ġmajority": 5114,
      "Ġmap": 5115,
      ".'": 5116,
      "Ġfaith": 5117,
      "ogen": 5118,
      "Ġiron": 5119,
      "Ġinstall": 5120,
      "orig": 5121,
      "ifying": 5122,
      "Ġband": 5123,
      "Ġchallenge": 5124,
      "CTAA": 5125,
      "Ġsample": 5126,
      "atre": 5127,
      "iliar": 5128,
      "Ã©rie": 5129,
      "Ġequipment": 5130,
      "ĠDist": 5131,
      "ĠMond": 5132,
      "Ġoperation": 5133,
      "vin": 5134,
      "ĠFind": 5135,
      "Ġid": 5136,
      "ura": 5137,
      "nD": 5138,
      "Ġclim": 5139,
      "craft": 5140,
      "Ġmaster": 5141,
      "Ġ?": 5142,
      "Ġdifferences": 5143,
      "Ġplanning": 5144,
      "ĠprÃ©": 5145,
      "rogen": 5146,
      "ĠPublic": 5147,
      "Ġchamp": 5148,
      "arrow": 5149,
      "ĠnÃ©e": 5150,
      "Ġitems": 5151,
      "Ġfreed": 5152,
      "yr": 5153,
      "volution": 5154,
      "upper": 5155,
      "ht": 5156,
      "Ġleader": 5157,
      "Ġimpl": 5158,
      "oma": 5159,
      "Ġ2005": 5160,
      "Ġwel": 5161,
      "Ġsolid": 5162,
      "ï¿½*": 5163,
      "yself": 5164,
      "how": 5165,
      "TER": 5166,
      "Ġreality": 5167,
      "then": 5168,
      "Ġcities": 5169,
      "Ġreturned": 5170,
      "Ġprovince": 5171,
      "ĠProt": 5172,
      "ĠTex": 5173,
      "ĠMichael": 5174,
      "ache": 5175,
      "bed": 5176,
      "ĠWork": 5177,
      "Ġshot": 5178,
      "nIn": 5179,
      "Ġhighest": 5180,
      "Ġunf": 5181,
      "Ġaffected": 5182,
      "Ġfields": 5183,
      "Ġglass": 5184,
      "add": 5185,
      "Ġmit": 5186,
      "Ġopportunities": 5187,
      "Ġfirm": 5188,
      "OT": 5189,
      "ĠSl": 5190,
      "Ġpun": 5191,
      "Ġfinally": 5192,
      "GTAA": 5193,
      "Ġseparate": 5194,
      "iable": 5195,
      "Ġreduced": 5196,
      "\\\",": 5197,
      "Ġda": 5198,
      "Ġeasier": 5199,
      "Ġteach": 5200,
      "cis": 5201,
      "iÃ¨me": 5202,
      "ĠCap": 5203,
      "Ġbrief": 5204,
      "ĠSunday": 5205,
      "Ġbelieved": 5206,
      "agram": 5207,
      "Ġboy": 5208,
      "Ġclosed": 5209,
      "crib": 5210,
      "illes": 5211,
      "ĠAM": 5212,
      "Ġegg": 5213,
      "Ġjoint": 5214,
      "ena": 5215,
      "Ġinterested": 5216,
      "Ġcovered": 5217,
      "Ġbehavi": 5218,
      "ĠStep": 5219,
      "lick": 5220,
      "reci": 5221,
      "ĠHenry": 5222,
      "Ġobvious": 5223,
      "olar": 5224,
      "nam": 5225,
      "ĠMer": 5226,
      "icians": 5227,
      "ĠQue": 5228,
      "Ġvacc": 5229,
      "ĠTest": 5230,
      "Ġspring": 5231,
      "Ġplusieurs": 5232,
      "Ġcircum": 5233,
      "Ġdiseases": 5234,
      "comes": 5235,
      "asks": 5236,
      "Ġprefer": 5237,
      "ads": 5238,
      "Ġdetermined": 5239,
      "Ġcomfort": 5240,
      "omin": 5241,
      "Ġbottom": 5242,
      "acters": 5243,
      "Ġplayer": 5244,
      "wide": 5245,
      "plications": 5246,
      "Ġvariable": 5247,
      "anned": 5248,
      "Ġexplore": 5249,
      "ĠAny": 5250,
      "ĠStudents": 5251,
      "Ġconnected": 5252,
      "rage": 5253,
      "Ġdern": 5254,
      "Ġagricult": 5255,
      "ĠForm": 5256,
      "Ġ2018": 5257,
      "Ġsans": 5258,
      "GTCA": 5259,
      "Qu": 5260,
      "Ġsets": 5261,
      "OL": 5262,
      "ye": 5263,
      "Ġfollows": 5264,
      "ĠNor": 5265,
      "ĠAustralia": 5266,
      "Ġpatterns": 5267,
      "ita": 5268,
      "ĠEgypt": 5269,
      "ĠPhys": 5270,
      "othing": 5271,
      "Ġliqu": 5272,
      "illa": 5273,
      "rive": 5274,
      "ĠRome": 5275,
      "iders": 5276,
      "Ġvision": 5277,
      "teen": 5278,
      "mosp": 5279,
      "Ġcontre": 5280,
      "Ġtopic": 5281,
      "arn": 5282,
      "Ġadvantage": 5283,
      "ifically": 5284,
      "eurs": 5285,
      "isher": 5286,
      "ĠBre": 5287,
      "Ġteeth": 5288,
      "Ġhelped": 5289,
      "Ġbelong": 5290,
      "eles": 5291,
      "west": 5292,
      "chen": 5293,
      "ola": 5294,
      "ĕï¿½": 5295,
      "Ġpaid": 5296,
      "Ġfinding": 5297,
      "udd": 5298,
      "ĠId": 5299,
      "Ġcounter": 5300,
      "sur": 5301,
      "riage": 5302,
      "anging": 5303,
      "ĠLike": 5304,
      "ishing": 5305,
      "Ġnotes": 5306,
      "Ġexperiences": 5307,
      "Ġappeared": 5308,
      "Ġmere": 5309,
      "Ġpul": 5310,
      "ston": 5311,
      "look": 5312,
      "ĠDans": 5313,
      "Ġintroduced": 5314,
      "Ġfuel": 5315,
      "TTTTA": 5316,
      "Ġclearly": 5317,
      "Ġgirl": 5318,
      "Ġbond": 5319,
      "ĠFurther": 5320,
      "Ġexhib": 5321,
      "ĠFore": 5322,
      "Ġproof": 5323,
      "cf": 5324,
      "nC": 5325,
      "aped": 5326,
      "Ġlic": 5327,
      "Ġcitizens": 5328,
      "Ġphilosoph": 5329,
      "Ġvon": 5330,
      "Ġtheore": 5331,
      "Ġcertainly": 5332,
      "Ġzero": 5333,
      "ĠIts": 5334,
      "Ġdream": 5335,
      "Ġdistinct": 5336,
      "Ġindex": 5337,
      "Ġtrain": 5338,
      "Ġraised": 5339,
      "ĠÃĢ": 5340,
      "lig": 5341,
      "^{": 5342,
      "Ġcapacity": 5343,
      "ĠMass": 5344,
      "cipl": 5345,
      "ront": 5346,
      "Ġna": 5347,
      "Ġbaby": 5348,
      "orage": 5349,
      "Ġthousands": 5350,
      "Ġconnection": 5351,
      "New": 5352,
      "Ġtrib": 5353,
      "fered": 5354,
      "his": 5355,
      "cal": 5356,
      "zen": 5357,
      "Ġscript": 5358,
      "vi": 5359,
      "Ġalgorithm": 5360,
      "Ġphase": 5361,
      "ĠJul": 5362,
      "]\\": 5363,
      "ĠSociety": 5364,
      "Ġban": 5365,
      "Ġeu": 5366,
      "CATA": 5367,
      "Ġrepr": 5368,
      "ĠGold": 5369,
      "Ġprepar": 5370,
      "Ġeducational": 5371,
      "Ġreplace": 5372,
      "Ġproposed": 5373,
      "Ġunits": 5374,
      "gress": 5375,
      "ags": 5376,
      "ä¸": 5377,
      "Ġsend": 5378,
      "ĠBas": 5379,
      "ZW": 5380,
      "Ġidentified": 5381,
      "rition": 5382,
      "ï¬ģ": 5383,
      "Ġfemale": 5384,
      "Se": 5385,
      "Ġsolar": 5386,
      "Ġhappy": 5387,
      "Ġexcell": 5388,
      "ĠSpanish": 5389,
      "ĠcrÃ©": 5390,
      "ĠdÃ©s": 5391,
      "Ġhappens": 5392,
      "rect": 5393,
      "mit": 5394,
      "Ġtalking": 5395,
      "igration": 5396,
      "ÂŃ": 5397,
      "level": 5398,
      "ĠGoogle": 5399,
      "stract": 5400,
      "iveness": 5401,
      "Ġlived": 5402,
      "ĠamÃ©ricain": 5403,
      "ĠConf": 5404,
      "ĠWater": 5405,
      "ĠÂ»,": 5406,
      "ttps": 5407,
      "+ï¿½": 5408,
      "ĠJo": 5409,
      "Ġrelevant": 5410,
      "CTTA": 5411,
      "position": 5412,
      "alse": 5413,
      "Ġ2019": 5414,
      "usiness": 5415,
      "ET": 5416,
      "uesday": 5417,
      "Ġsugar": 5418,
      "Ġpages": 5419,
      "Ġsudden": 5420,
      "Ġappoint": 5421,
      "Ġvalid": 5422,
      "Ġselon": 5423,
      "Ġvariables": 5424,
      "Ġvie": 5425,
      "ĠCouncil": 5426,
      "Ġeating": 5427,
      "So": 5428,
      "ĠPeter": 5429,
      "ĠPlan": 5430,
      "amment": 5431,
      "Ġformula": 5432,
      "Ġburn": 5433,
      "ributed": 5434,
      "Ġ80": 5435,
      "ĠMo": 5436,
      "ĠCompany": 5437,
      "inder": 5438,
      "Ġrow": 5439,
      "Ġdestroy": 5440,
      "Ġstructures": 5441,
      "kes": 5442,
      "Ġserved": 5443,
      "ĠBritain": 5444,
      "ĠData": 5445,
      "Ġtechnique": 5446,
      "han": 5447,
      "alysis": 5448,
      "........": 5449,
      "Ġdoubt": 5450,
      "Ġlegis": 5451,
      "onic": 5452,
      "Ġcopy": 5453,
      "ĠÏ": 5454,
      "Ġrequirements": 5455,
      "uted": 5456,
      "ĠMake": 5457,
      "ota": 5458,
      "Ġsigns": 5459,
      "Ġ90": 5460,
      "Ġrul": 5461,
      "iser": 5462,
      "akers": 5463,
      "esp": 5464,
      "Ġconcepts": 5465,
      "ĠWed": 5466,
      "ĠWestern": 5467,
      "Ġtu": 5468,
      "imal": 5469,
      "Ġadults": 5470,
      "Ġminor": 5471,
      "Ġlinear": 5472,
      "porary": 5473,
      "ĠAP": 5474,
      "Ġtrig": 5475,
      "Ġvast": 5476,
      "Ġsubs": 5477,
      "Ġsales": 5478,
      "Ġmotion": 5479,
      "Ġamb": 5480,
      "ĠGroup": 5481,
      "ĠLast": 5482,
      "Ġpractical": 5483,
      "Ġhun": 5484,
      "Ġmyself": 5485,
      "Ġpros": 5486,
      "Ġtechnical": 5487,
      "Ġindeed": 5488,
      "Ġannual": 5489,
      "Ġsolve": 5490,
      "nt": 5491,
      "orter": 5492,
      "ĠRussia": 5493,
      "ĠSocial": 5494,
      "ician": 5495,
      "ĠNov": 5496,
      "Ġmont": 5497,
      "Ġavant": 5498,
      "cohol": 5499,
      "Ġsuggests": 5500,
      "ĠChic": 5501,
      "orrow": 5502,
      "Ġdiss": 5503,
      "Ġprotein": 5504,
      "Ġnotice": 5505,
      "mas": 5506,
      "ato": 5507,
      "acing": 5508,
      "ĠGood": 5509,
      "Ġdecisions": 5510,
      "certain": 5511,
      "Ġclick": 5512,
      "Ġmatrix": 5513,
      "Ġsell": 5514,
      "Ġphone": 5515,
      "organ": 5516,
      "Ġsides": 5517,
      "ails": 5518,
      "ĠMonday": 5519,
      "inte": 5520,
      "ĠSmith": 5521,
      "ĠItal": 5522,
      "enses": 5523,
      "Ġvictim": 5524,
      "Ġfootball": 5525,
      "burg": 5526,
      "Ġfamous": 5527,
      "agon": 5528,
      "Ġfrequency": 5529,
      "Ġdisapp": 5530,
      "Ġeventually": 5531,
      "ĠTherefore": 5532,
      "Ġprobability": 5533,
      "Ġjusqu": 5534,
      "hi": 5535,
      "Ġwindow": 5536,
      "ĠStreet": 5537,
      "Tr": 5538,
      "Ã®t": 5539,
      "Ġcharacters": 5540,
      "Ġearn": 5541,
      "mary": 5542,
      "ĠSupp": 5543,
      "Ġgod": 5544,
      "Ġoffered": 5545,
      "Ġmillions": 5546,
      "itis": 5547,
      "Ãªte": 5548,
      "Ġgrade": 5549,
      "Ġupper": 5550,
      "Ġroot": 5551,
      "Ġstring": 5552,
      "ĠRichard": 5553,
      "MS": 5554,
      "inet": 5555,
      "ras": 5556,
      "eding": 5557,
      "Ġmathematics": 5558,
      "win": 5559,
      "Ġmaximum": 5560,
      "Ġremained": 5561,
      "Ġmale": 5562,
      "Ġobtained": 5563,
      "ĠMathemat": 5564,
      "icks": 5565,
      "ĠhÃ¤n": 5566,
      "_.": 5567,
      "Ġrequest": 5568,
      "ĠDet": 5569,
      "sa": 5570,
      "At": 5571,
      "Ġinvestment": 5572,
      "Ġgeneration": 5573,
      "Ġmi": 5574,
      "ĠTuesday": 5575,
      "edia": 5576,
      "Ġheight": 5577,
      "rant": 5578,
      "Ġquel": 5579,
      "Ġpurs": 5580,
      "oper": 5581,
      "Ġshoot": 5582,
      "Ġsav": 5583,
      "iced": 5584,
      "GCCA": 5585,
      "ĠProv": 5586,
      "ĠUsing": 5587,
      "Ġextremely": 5588,
      "isted": 5589,
      "Ġenviron": 5590,
      "Ã¨me": 5591,
      "rum": 5592,
      "abetes": 5593,
      "That": 5594,
      "ĠDu": 5595,
      "ĠfranÃ§aise": 5596,
      "ĠSatur": 5597,
      "Ġtransl": 5598,
      "ĠGovernment": 5599,
      "Ġsimpl": 5600,
      "ï¿½(": 5601,
      "ĠRec": 5602,
      "Ġfloor": 5603,
      "Ġadvance": 5604,
      "Ġdefinition": 5605,
      "had": 5606,
      "Ġpartners": 5607,
      "Ġfruit": 5608,
      "Ġaspects": 5609,
      "Î±": 5610,
      "Ġprices": 5611,
      "Ġthick": 5612,
      "Ġavait": 5613,
      "Be": 5614,
      "Ġalternative": 5615,
      "Ġbes": 5616,
      "Ġapart": 5617,
      "Ġradio": 5618,
      "Ġ35": 5619,
      "yt": 5620,
      "ĠAssociation": 5621,
      "Ġperformed": 5622,
      "Ġbecoming": 5623,
      "Ġprepared": 5624,
      "Ġpolitique": 5625,
      "Ġformat": 5626,
      "Ġhus": 5627,
      "bm": 5628,
      "Ġincreases": 5629,
      "Ġaware": 5630,
      "istan": 5631,
      "ï¿½:": 5632,
      "Ġdescribe": 5633,
      "rate": 5634,
      "arp": 5635,
      "uty": 5636,
      "Ġmetal": 5637,
      "Ġ2004": 5638,
      "Ġdetect": 5639,
      "ĠLife": 5640,
      "Ġax": 5641,
      "Ġexplan": 5642,
      "Ġwants": 5643,
      "Ġcha": 5644,
      "otes": 5645,
      "ulf": 5646,
      "ĠTexas": 5647,
      "ï¿½\\": 5648,
      "aks": 5649,
      "ĠJapanese": 5650,
      "Ġtwenty": 5651,
      "Ġfois": 5652,
      "They": 5653,
      "ĠIr": 5654,
      "Ġdetailed": 5655,
      "vement": 5656,
      "Ġlatest": 5657,
      "IL": 5658,
      "iverse": 5659,
      "Ġvul": 5660,
      "ugh": 5661,
      "Ġfixed": 5662,
      "Ġproport": 5663,
      "IE": 5664,
      "Ġopened": 5665,
      "Ġbodies": 5666,
      "iform": 5667,
      "Ġresistance": 5668,
      "has": 5669,
      "Ġtut": 5670,
      "Ġplanet": 5671,
      "Ġevolution": 5672,
      "2013": 5673,
      "Ã©ral": 5674,
      "ĠBoth": 5675,
      "Ġinfection": 5676,
      "ĠUN": 5677,
      "Ġcycle": 5678,
      "hips": 5679,
      "Ġoccurs": 5680,
      "Ġchosen": 5681,
      "Ġsufficient": 5682,
      "bal": 5683,
      "ĠIns": 5684,
      "Ġscreen": 5685,
      "Ġcombination": 5686,
      "ĠJac": 5687,
      "Or": 5688,
      "Ġalb": 5689,
      "Ãīt": 5690,
      "Ġcontrast": 5691,
      "ï¿½\"": 5692,
      "eless": 5693,
      "mble": 5694,
      "ĠGreek": 5695,
      "long": 5696,
      "Ġrecords": 5697,
      "hem": 5698,
      "**\\": 5699,
      "angle": 5700,
      "ĠObama": 5701,
      "ĠRob": 5702,
      "ĠGet": 5703,
      "Ġ---": 5704,
      "SE": 5705,
      "Ġbatter": 5706,
      "Ġshowing": 5707,
      "ĠMem": 5708,
      "ĠFrank": 5709,
      "Ġphen": 5710,
      "Ġshared": 5711,
      "ï¿½$": 5712,
      "this": 5713,
      "ĠGrand": 5714,
      "TATG": 5715,
      "Ġallemand": 5716,
      "requ": 5717,
      "My": 5718,
      "Ġnative": 5719,
      "oving": 5720,
      "ĠRussian": 5721,
      "Ġgrant": 5722,
      "GTTA": 5723,
      "ĠAbout": 5724,
      "Ad": 5725,
      "inst": 5726,
      "Ġcombined": 5727,
      "Ġchanging": 5728,
      "Ġmanage": 5729,
      "Ġmonde": 5730,
      "Ġrelatively": 5731,
      "Ġliterature": 5732,
      "CCCA": 5733,
      "Ġviolence": 5734,
      "stein": 5735,
      "ĠMag": 5736,
      "Ġvent": 5737,
      "ï¿½ē": 5738,
      "Ġsnow": 5739,
      "rors": 5740,
      "Ġalt": 5741,
      "Ġexperiment": 5742,
      "Ġaren": 5743,
      "ĠExpl": 5744,
      "ï¿½Ē": 5745,
      "Ġcommonly": 5746,
      "name": 5747,
      "amental": 5748,
      "ographic": 5749,
      "500": 5750,
      "itness": 5751,
      "nement": 5752,
      "Ġleaving": 5753,
      "Ġparties": 5754,
      "Ġpolicies": 5755,
      "Ġapparent": 5756,
      "Ġvary": 5757,
      "ĠBet": 5758,
      "Ġfer": 5759,
      "Ġcrucial": 5760,
      "Ġsand": 5761,
      "ï¿½'": 5762,
      "Ġinvent": 5763,
      "Ġstim": 5764,
      "going": 5765,
      "Ġnoted": 5766,
      "Ġwish": 5767,
      "ĠSuper": 5768,
      "ĠSa": 5769,
      "Ġpassage": 5770,
      "ĠVer": 5771,
      "Ġblog": 5772,
      "Â«": 5773,
      "exp": 5774,
      "ey": 5775,
      "ĠAtt": 5776,
      "Ġdegrees": 5777,
      "GAAAA": 5778,
      "ĠSecond": 5779,
      "Ġlie": 5780,
      "Ġadding": 5781,
      "))": 5782,
      "Ġformation": 5783,
      "vo": 5784,
      "Ġadministration": 5785,
      "Ġsignificantly": 5786,
      "Ġgarden": 5787,
      "CGG": 5788,
      "olved": 5789,
      "PA": 5790,
      "ĠView": 5791,
      "Ġhospital": 5792,
      "Ġ},\\": 5793,
      "Ġinternal": 5794,
      "Ġ70": 5795,
      "umin": 5796,
      "coming": 5797,
      "Ġfaire": 5798,
      "bd": 5799,
      "Unis": 5800,
      "Ġwave": 5801,
      "annel": 5802,
      "ĠWind": 5803,
      "ĠSaturday": 5804,
      "Ġvalu": 5805,
      "Ġopinion": 5806,
      "ĠHome": 5807,
      "ĠHall": 5808,
      "Ġdatab": 5809,
      "Ġencore": 5810,
      "Ġmes": 5811,
      "sis": 5812,
      "ports": 5813,
      "anges": 5814,
      "ĠFace": 5815,
      "ooth": 5816,
      "ĠAnn": 5817,
      "Ġattend": 5818,
      "ĠDonald": 5819,
      "Ġdespite": 5820,
      "ï¿½Ă": 5821,
      "istes": 5822,
      "ancing": 5823,
      "mpire": 5824,
      "Con": 5825,
      "Ġfindings": 5826,
      "YX": 5827,
      "Ġ1990": 5828,
      "Ã´t": 5829,
      "Ġforced": 5830,
      "Ã©qu": 5831,
      "word": 5832,
      "Ġbirds": 5833,
      "Ġsecon": 5834,
      "SA": 5835,
      "ĠCarol": 5836,
      "Ġatmosp": 5837,
      "Sh": 5838,
      "anged": 5839,
      "Ġcore": 5840,
      "eline": 5841,
      "jet": 5842,
      "Ġaudience": 5843,
      "arsh": 5844,
      "Ġconcerns": 5845,
      "ala": 5846,
      "ĠProject": 5847,
      "ĠTor": 5848,
      "Ġnumerous": 5849,
      "ĠPet": 5850,
      "Ġwealth": 5851,
      "Ġrelationships": 5852,
      "Ġlinks": 5853,
      "ĠChicago": 5854,
      "Ġsequence": 5855,
      "Ġpreviously": 5856,
      "Ġdrugs": 5857,
      "auc": 5858,
      "Ġprinciples": 5859,
      "ï¿½[": 5860,
      "Ġabsor": 5861,
      "Ġofficials": 5862,
      "crete": 5863,
      "ĠDisc": 5864,
      "---|": 5865,
      "enced": 5866,
      "Ġinterpret": 5867,
      "ï¿½Ą": 5868,
      "ĠSir": 5869,
      "cs": 5870,
      "Ġcrow": 5871,
      "cular": 5872,
      "ĠService": 5873,
      "TTAA": 5874,
      "lie": 5875,
      "ĠVirgin": 5876,
      "Ġregarding": 5877,
      "Ġjobs": 5878,
      "ĠAddition": 5879,
      "hand": 5880,
      "Ġreligion": 5881,
      "ĠdÃ©partement": 5882,
      "ĠMil": 5883,
      "ĠAND": 5884,
      "Ġprocessing": 5885,
      "Ġrom": 5886,
      "Ġpure": 5887,
      "Ġahead": 5888,
      "Ġsan": 5889,
      "Ġfamiliar": 5890,
      "ĠIsland": 5891,
      "Ġincorpor": 5892,
      "Ġpieces": 5893,
      "Ġconsult": 5894,
      "Ġcontem": 5895,
      "Ġjustice": 5896,
      "Ġsurvey": 5897,
      "Ġyouth": 5898,
      "ĠthÃ©": 5899,
      "Ġarticles": 5900,
      "ĠTV": 5901,
      "Ġru": 5902,
      "ĠJud": 5903,
      "Ġdaughter": 5904,
      "Ġresource": 5905,
      "Ġequival": 5906,
      "Ġvirus": 5907,
      "atically": 5908,
      "Ġspend": 5909,
      "Ġregions": 5910,
      "Ġthousand": 5911,
      "Ġdur": 5912,
      "Ġfrequently": 5913,
      "Ġdir": 5914,
      "ocation": 5915,
      "Ġarms": 5916,
      "pat": 5917,
      "Ġmathematical": 5918,
      "Ġpregn": 5919,
      "Ġriv": 5920,
      "ĠCath": 5921,
      "ĠJewish": 5922,
      "Ġ2003": 5923,
      "ogue": 5924,
      "ï¿½&": 5925,
      "Ġorganizations": 5926,
      "ĠToday": 5927,
      "Ġlose": 5928,
      "atural": 5929,
      "Ġroute": 5930,
      "clude": 5931,
      "sey": 5932,
      "emple": 5933,
      "Ġbright": 5934,
      "UN": 5935,
      "ystem": 5936,
      "ï¿½Ě": 5937,
      "Ġgar": 5938,
      "bc": 5939,
      "ï¿½Ĕ": 5940,
      "Ġcos": 5941,
      "Ġisol": 5942,
      "She": 5943,
      "ĠTom": 5944,
      "ï¿½^": 5945,
      "gest": 5946,
      "related": 5947,
      "Ġdescri": 5948,
      "ĠMexico": 5949,
      "ĠAv": 5950,
      "ĠFigure": 5951,
      "Ġletters": 5952,
      "TION": 5953,
      "Ġequations": 5954,
      "Ġcomprehensive": 5955,
      "Ġmostly": 5956,
      "car": 5957,
      "ĠElect": 5958,
      "rome": 5959,
      "Ġavoir": 5960,
      "enant": 5961,
      "ï¿½|": 5962,
      "you": 5963,
      "Ġcompleted": 5964,
      "Ġtreated": 5965,
      "ĠrÃ©p": 5966,
      "state": 5967,
      "Ġadvice": 5968,
      "Ġbackground": 5969,
      "Ġconversation": 5970,
      "Ġpoly": 5971,
      "ĠFound": 5972,
      "Americ": 5973,
      "Ġ.\\": 5974,
      "iffe": 5975,
      "ĠConst": 5976,
      "iÃ©": 5977,
      "Ġkid": 5978,
      "Ġsymbol": 5979,
      "ora": 5980,
      "ework": 5981,
      "!!": 5982,
      "Ġdescription": 5983,
      "ĠTutors": 5984,
      "ona": 5985,
      "Ã¨te": 5986,
      "ĠCentral": 5987,
      "Ġ2001": 5988,
      "Ġremove": 5989,
      "Ġsexual": 5990,
      "bles": 5991,
      "ulum": 5992,
      "iÃ¨res": 5993,
      "stood": 5994,
      "Ġpil": 5995,
      "Ġjourney": 5996,
      "Ġremoved": 5997,
      "ï¿½{": 5998,
      "ï¿½Ĉ": 5999,
      "unicip": 6000,
      "Ġinvolves": 6001,
      "Ġthoughts": 6002,
      "Ġelection": 6003,
      "Ġtail": 6004,
      "ursday": 6005,
      "Ġfreedom": 6006,
      "By": 6007,
      "ns": 6008,
      "ĠNav": 6009,
      "ython": 6010,
      "ĠDiv": 6011,
      "ï¿½Ď": 6012,
      "ï¿½%": 6013,
      "Ġinfect": 6014,
      "Ġleads": 6015,
      "Ġaccomp": 6016,
      "resents": 6017,
      "Ġfailure": 6018,
      "Ġintended": 6019,
      "ĠMount": 6020,
      "ĠAI": 6021,
      "ï¿½ě": 6022,
      "ĠProfess": 6023,
      "ĠOld": 6024,
      "Ġcustomers": 6025,
      "ĠDevelopment": 6026,
      "Ġgrav": 6027,
      "Ġvess": 6028,
      "alls": 6029,
      "ï¿½,": 6030,
      "oto": 6031,
      "Ġmix": 6032,
      "Ġrain": 6033,
      "ingly": 6034,
      "Ġtherapy": 6035,
      "ĠDemocr": 6036,
      "ĠÃītats": 6037,
      "Ġviews": 6038,
      "Ġisland": 6039,
      "Ġedge": 6040,
      "ĠDou": 6041,
      "Ġseek": 6042,
      "Ġfigures": 6043,
      "ï¿½@": 6044,
      "ĠCanad": 6045,
      "Ġacademic": 6046,
      "Ġgirls": 6047,
      "ĠArmy": 6048,
      "ï¿½~": 6049,
      "Ġaid": 6050,
      "sm": 6051,
      "ocol": 6052,
      "Ġprove": 6053,
      "xiety": 6054,
      "ĠVict": 6055,
      "ĠPac": 6056,
      "Ġsector": 6057,
      "while": 6058,
      "!âĢĿ": 6059,
      "Ġexcess": 6060,
      "Ġkeeping": 6061,
      "ĠZe": 6062,
      "ĠMuse": 6063,
      "Ġexistence": 6064,
      "Ġappel": 6065,
      "ĠTime": 6066,
      "Ġintelligence": 6067,
      "Ġdial": 6068,
      "Ġcoordin": 6069,
      "ierre": 6070,
      "Ġappreci": 6071,
      "Ġemployees": 6072,
      "Ġsept": 6073,
      "Ġflat": 6074,
      "edy": 6075,
      "Ġreaction": 6076,
      "Ġsuppl": 6077,
      "Ġlibrary": 6078,
      "Ġwhatever": 6079,
      "jour": 6080,
      "Ġcommit": 6081,
      "âĢĿ.": 6082,
      "Ġofficers": 6083,
      "ĠOrgan": 6084,
      "nesday": 6085,
      "Ġfiles": 6086,
      "Ġweap": 6087,
      "ĠEqu": 6088,
      "anda": 6089,
      "Ġcris": 6090,
      "ĠInde": 6091,
      "itors": 6092,
      "ãĢĤ": 6093,
      "Ġanswers": 6094,
      "Ġencourage": 6095,
      "road": 6096,
      "ĠSant": 6097,
      "Ġexperts": 6098,
      "ï¿½Ā": 6099,
      "Ġsuc": 6100,
      "mod": 6101,
      "ashion": 6102,
      "Ġnotamment": 6103,
      "Ġratio": 6104,
      "Ġeffectively": 6105,
      "nM": 6106,
      "ĠReview": 6107,
      "ĠInte": 6108,
      "Ġpray": 6109,
      "ĠLong": 6110,
      "Ġdivision": 6111,
      "Ġhorse": 6112,
      "ishes": 6113,
      "esse": 6114,
      "Ġotherwise": 6115,
      "ouest": 6116,
      "Ġlatter": 6117,
      "ï¿½<": 6118,
      "Ġdit": 6119,
      "ĠBur": 6120,
      "itely": 6121,
      "Ġannounced": 6122,
      "Ġvehicle": 6123,
      "poses": 6124,
      "occ": 6125,
      "ĠAtlant": 6126,
      "IA": 6127,
      "ï¿½`": 6128,
      "Ġminimum": 6129,
      "Ġsmart": 6130,
      "she": 6131,
      ")$": 6132,
      "Ġgreatest": 6133,
      "ï¿½>": 6134,
      "Ġhelping": 6135,
      "Ġapproximately": 6136,
      "ï¿½}": 6137,
      ":**\\": 6138,
      "Ġpull": 6139,
      "Ġexperienced": 6140,
      "Ġkil": 6141,
      "Ġdirector": 6142,
      "Ġsecure": 6143,
      "ĠPower": 6144,
      "rane": 6145,
      "Ġdecades": 6146,
      "ĠInternet": 6147,
      "Ġkill": 6148,
      "ĠWhere": 6149,
      "ortunately": 6150,
      "allel": 6151,
      "TH": 6152,
      "PC": 6153,
      "Ġowners": 6154,
      "ï¿½;": 6155,
      "ĠBest": 6156,
      "apes": 6157,
      "Ġdrop": 6158,
      "Ġstars": 6159,
      "Ġestimated": 6160,
      "Ġconducted": 6161,
      "Ġoperating": 6162,
      "fri": 6163,
      "ĠLand": 6164,
      "ĠJoseph": 6165,
      "Ġ45": 6166,
      "ĠBank": 6167,
      "Ġindustrial": 6168,
      "Ġtaught": 6169,
      "ï¿½)": 6170,
      "Ġformal": 6171,
      "Ġsupported": 6172,
      "ï¿½Ė": 6173,
      "ushed": 6174,
      "ĠFrancis": 6175,
      "Ġmotiv": 6176,
      "Ġ2002": 6177,
      "Ġopening": 6178,
      "osc": 6179,
      "Ġexplained": 6180,
      "Ġcart": 6181,
      "imp": 6182,
      "ï¿½ą": 6183,
      "olit": 6184,
      "Ġment": 6185,
      "Ġeast": 6186,
      "ï¿½đ": 6187,
      "ĠAsia": 6188,
      "stances": 6189,
      "Ġproperly": 6190,
      "Ġvous": 6191,
      "Ġarrest": 6192,
      "ĠThursday": 6193,
      "ĠStat": 6194,
      "Ġexposure": 6195,
      "Ġcreation": 6196,
      "emic": 6197,
      "Qg": 6198,
      "aug": 6199,
      "ĠChildren": 6200,
      "ĠCre": 6201,
      "ĠBack": 6202,
      "ompl": 6203,
      "Ġauthority": 6204,
      "Ġscore": 6205,
      "gery": 6206,
      "TTTG": 6207,
      "Ġsuiv": 6208,
      "tion": 6209,
      "ĠStr": 6210,
      "idden": 6211,
      "uous": 6212,
      "Ġstuff": 6213,
      "Ġpossess": 6214,
      "Ġhandle": 6215,
      "Ġseeing": 6216,
      "Ġimpossible": 6217,
      "Ġ).": 6218,
      "athe": 6219,
      "Ġremark": 6220,
      "CTTTT": 6221,
      "ears": 6222,
      "Ã¦": 6223,
      "OD": 6224,
      "Î½": 6225,
      "Ġmaybe": 6226,
      "Ġbow": 6227,
      "Ġmel": 6228,
      "ĠIII": 6229,
      "ĠWeb": 6230,
      "xic": 6231,
      "Ġfon": 6232,
      "Ġlanguages": 6233,
      "ï¿½Ć": 6234,
      "Ġzone": 6235,
      "Ġfab": 6236,
      "Ã¨res": 6237,
      "war": 6238,
      "Ġstructured": 6239,
      "Ġgenetic": 6240,
      "Ġmarch": 6241,
      "Ġefficiency": 6242,
      "Ġhomes": 6243,
      "Ġresulting": 6244,
      "icit": 6245,
      "Ġscene": 6246,
      "ï¿½#": 6247,
      "Ġstone": 6248,
      "otion": 6249,
      "ĠPlease": 6250,
      "Ġappearance": 6251,
      "Ġkm": 6252,
      "ï¿½?": 6253,
      "ologie": 6254,
      "have": 6255,
      "Am": 6256,
      "ints": 6257,
      "Ġwidely": 6258,
      "ï¿½]": 6259,
      "net": 6260,
      "icial": 6261,
      "Ġidentity": 6262,
      "ï¿½-": 6263,
      "Ġhearing": 6264,
      "Ġallowing": 6265,
      "areness": 6266,
      "ĠArab": 6267,
      "Ġcalls": 6268,
      "Ġknows": 6269,
      "Ġbacteria": 6270,
      "ellect": 6271,
      "Ġinjury": 6272,
      "Ġsoldiers": 6273,
      "ĠIslam": 6274,
      "Ġclaims": 6275,
      "Ġslightly": 6276,
      "nT": 6277,
      "Ġrepresents": 6278,
      "Ġcomponent": 6279,
      "obe": 6280,
      "ĠCommission": 6281,
      "Ġstood": 6282,
      "Ġrank": 6283,
      "ĠWednesday": 6284,
      "hl": 6285,
      "Ġparticipants": 6286,
      "Ġonto": 6287,
      "Ġprogramming": 6288,
      "Ġoccasion": 6289,
      "ZX": 6290,
      "All": 6291,
      "Ġliv": 6292,
      "ĠNote": 6293,
      "Ġplate": 6294,
      "osa": 6295,
      "Ġgall": 6296,
      "Ġclassroom": 6297,
      "Ġmotor": 6298,
      "Ġtechnologies": 6299,
      "Ġstorage": 6300,
      "lymp": 6301,
      "ĠHill": 6302,
      "Ġteams": 6303,
      "night": 6304,
      "ĠÂ».": 6305,
      "raction": 6306,
      "ĠMic": 6307,
      "ï¿½ā": 6308,
      "dc": 6309,
      "bar": 6310,
      "Ġran": 6311,
      "GTTTT": 6312,
      "ï¿½ġ": 6313,
      "ocument": 6314,
      "Ġdiscover": 6315,
      "hr": 6316,
      "Ġalcohol": 6317,
      "Ġlogic": 6318,
      "Ġrelation": 6319,
      "Ġsports": 6320,
      "Ġstorm": 6321,
      "uts": 6322,
      "Ġmode": 6323,
      "Ġsuggested": 6324,
      "ĠFam": 6325,
      "ĠGeorg": 6326,
      "Ġrh": 6327,
      "pm": 6328,
      "```": 6329,
      "Ġnarr": 6330,
      "nce": 6331,
      "Ġchart": 6332,
      "Ġdefe": 6333,
      "Ġtransition": 6334,
      "MP": 6335,
      "Ġtous": 6336,
      "ĠÂ©": 6337,
      "ansion": 6338,
      "Ġhusband": 6339,
      "Ġrail": 6340,
      "CO": 6341,
      "ĠCr": 6342,
      "Ġcontinues": 6343,
      "HA": 6344,
      "Ġauthors": 6345,
      "Ġlesson": 6346,
      "ï¿½ă": 6347,
      "ĠBill": 6348,
      "Ġentirely": 6349,
      "Ġperspective": 6350,
      "Ġsounds": 6351,
      "they": 6352,
      "GATG": 6353,
      "Ġtun": 6354,
      ".\\\"\\": 6355,
      "Ġnouvelle": 6356,
      "Ug": 6357,
      "ĠMartin": 6358,
      "Ġmarg": 6359,
      "ĠWorks": 6360,
      "Ġcolle": 6361,
      "roid": 6362,
      "TTTA": 6363,
      "Ġlayer": 6364,
      ".;": 6365,
      "Ġrisks": 6366,
      "ĠdiffÃ©": 6367,
      "icy": 6368,
      "ometimes": 6369,
      "Ġcoal": 6370,
      "ĠEconom": 6371,
      "aan": 6372,
      "Pl": 6373,
      "Ġmoins": 6374,
      "Ġtemps": 6375,
      "bu": 6376,
      "Ġfacts": 6377,
      "bur": 6378,
      "ĠVis": 6379,
      "Ġflex": 6380,
      "Ġfailed": 6381,
      "ï¿½=": 6382,
      "Ġdangerous": 6383,
      "Ġreferred": 6384,
      "Ġdivided": 6385,
      "Ġemotional": 6386,
      "ĠFlor": 6387,
      "ipped": 6388,
      "Ġthr": 6389,
      "Ġtroops": 6390,
      "ĠStand": 6391,
      "Ġprincipal": 6392,
      "Ġideal": 6393,
      "Ġautres": 6394,
      "Ġfilled": 6395,
      "Ġstands": 6396,
      "Ġsuite": 6397,
      "Ġsoul": 6398,
      "Ġperman": 6399,
      "ĠRh": 6400,
      "Ġfix": 6401,
      "ĠRad": 6402,
      "Ġsupposed": 6403,
      "Î¿": 6404,
      "kins": 6405,
      "Ġillness": 6406,
      "oque": 6407,
      "Ġ32": 6408,
      "Ġdriving": 6409,
      "ygen": 6410,
      "ĠMuslim": 6411,
      "Ġow": 6412,
      "Ġconfir": 6413,
      "Ġ]": 6414,
      "icated": 6415,
      "Ġcorpor": 6416,
      "ĠAcadem": 6417,
      "roph": 6418,
      "asp": 6419,
      "Ġfourth": 6420,
      "zing": 6421,
      "Ġlas": 6422,
      "Ġdepth": 6423,
      "Ġconflict": 6424,
      "Ġtopics": 6425,
      "Ġurban": 6426,
      "TCTC": 6427,
      "ĠGal": 6428,
      "Ro": 6429,
      "ï¿½Đ": 6430,
      "igned": 6431,
      "ĠBrown": 6432,
      "Ġbusinesses": 6433,
      "Ġexcellent": 6434,
      "unte": 6435,
      "ï¿½_": 6436,
      "Ġcritic": 6437,
      "Ġnous": 6438,
      "class": 6439,
      "orph": 6440,
      "Ġaccompl": 6441,
      "ĠSing": 6442,
      "ĠDNA": 6443,
      "Ġrepresentation": 6444,
      "Ġnine": 6445,
      "Ġbuildings": 6446,
      "urally": 6447,
      "ĠWho": 6448,
      "Ġmilk": 6449,
      "ĠComput": 6450,
      "ĠYes": 6451,
      "Ġchapter": 6452,
      "ĠdÃ©velop": 6453,
      "ĠIS": 6454,
      "Ġenemy": 6455,
      "ĠTO": 6456,
      "andon": 6457,
      "Ġtrial": 6458,
      "Ġdiscussed": 6459,
      "Ġunless": 6460,
      "Ġnone": 6461,
      "Ġbreast": 6462,
      "Ġportion": 6463,
      "ĠBig": 6464,
      "ĠScott": 6465,
      "Ġarrived": 6466,
      "Ġselected": 6467,
      "Ġengineering": 6468,
      "lements": 6469,
      "Ġvector": 6470,
      "Ġflo": 6471,
      "Ġconfidence": 6472,
      "ï¿½ę": 6473,
      "ĠMel": 6474,
      "RE": 6475,
      "Ġimproved": 6476,
      "Ġtasks": 6477,
      "Ġgroupe": 6478,
      "Ġarray": 6479,
      "Ġrapp": 6480,
      "Ġaccurate": 6481,
      "ĠAp": 6482,
      "ĠOpen": 6483,
      "Ġleadership": 6484,
      "ether": 6485,
      "Ġinstitutions": 6486,
      "Ġstret": 6487,
      "Ġexpressed": 6488,
      "ĠCare": 6489,
      "Ġcharacteristics": 6490,
      "ĠBefore": 6491,
      "ï¿½ğ": 6492,
      "Ġrose": 6493,
      "ï¿½Ę": 6494,
      "Ġshop": 6495,
      "Ġdiam": 6496,
      "Ġrough": 6497,
      "Ġguess": 6498,
      "ĠCamp": 6499,
      "antly": 6500,
      "ĠJews": 6501,
      "Ġven": 6502,
      "ml": 6503,
      "imm": 6504,
      "Ġbroken": 6505,
      "Ġtill": 6506,
      "Ġspok": 6507,
      "Ġsouthern": 6508,
      "rd": 6509,
      "Ġfundamental": 6510,
      "GTCC": 6511,
      "ï¿½/": 6512,
      "Ġdogs": 6513,
      "Ġinterests": 6514,
      "ea": 6515,
      "astern": 6516,
      "ĠTer": 6517,
      "Ġassessment": 6518,
      "Ġfocused": 6519,
      "rid": 6520,
      "Ã©ration": 6521,
      "Ġinternet": 6522,
      "Ġmanif": 6523,
      "Ġprinciple": 6524,
      "ormal": 6525,
      "ĠSil": 6526,
      "ĠHuman": 6527,
      "ĠInstead": 6528,
      "'.": 6529,
      "Ġplane": 6530,
      "ĠEv": 6531,
      "aming": 6532,
      "Ãªtre": 6533,
      "Ġangle": 6534,
      "Ã©ra": 6535,
      "Ġdim": 6536,
      "Ġexternal": 6537,
      "there": 6538,
      "Bl": 6539,
      "Ġnavig": 6540,
      "emp": 6541,
      "ï¿½ď": 6542,
      "Ġdeliver": 6543,
      "Ġpartir": 6544,
      "Ġdin": 6545,
      "Ġyellow": 6546,
      "ĠSk": 6547,
      "orough": 6548,
      "ĠMuseum": 6549,
      "umes": 6550,
      "With": 6551,
      "abil": 6552,
      "Ġsoit": 6553,
      "ĠDef": 6554,
      "MA": 6555,
      "born": 6556,
      "Ġhighlight": 6557,
      "Ġattacks": 6558,
      "ref": 6559,
      "Ġstanding": 6560,
      "Ġpurposes": 6561,
      "ĠSi": 6562,
      "ĠEnvironment": 6563,
      "ĠAns": 6564,
      "def": 6565,
      "inent": 6566,
      "Ġ500": 6567,
      "pass": 6568,
      "ï¿½.": 6569,
      "Ġspecifically": 6570,
      "ĠÃ©l": 6571,
      "yer": 6572,
      "Ġcouldn": 6573,
      "Ġconsumption": 6574,
      "Ġfaster": 6575,
      "Ġsucc": 6576,
      "fc": 6577,
      "Ġconcerned": 6578,
      "ĠInformation": 6579,
      "ĠLearning": 6580,
      "Ġstre": 6581,
      "liament": 6582,
      "Ġvs": 6583,
      "heim": 6584,
      "ĠYet": 6585,
      "=\"": 6586,
      "ĠStart": 6587,
      "Ġplot": 6588,
      "Ġjoin": 6589,
      "Ġmic": 6590,
      "Ġbudget": 6591,
      "Ġdisorder": 6592,
      "ching": 6593,
      "riÃ¨re": 6594,
      "oung": 6595,
      "ĠKar": 6596,
      "Ġconfig": 6597,
      "ĠSpr": 6598,
      "Ġdistingu": 6599,
      "Ġlandsc": 6600,
      "elled": 6601,
      "Ġrecommended": 6602,
      "imately": 6603,
      "ĠFollow": 6604,
      "Ġassist": 6605,
      "Ġenhance": 6606,
      "Ġcash": 6607,
      "Ġbegins": 6608,
      "ï¿½!": 6609,
      "Ġbeat": 6610,
      "ĠOffice": 6611,
      "ounded": 6612,
      "RA": 6613,
      "iate": 6614,
      "Ġfert": 6615,
      "GCTA": 6616,
      "je": 6617,
      "Ġmobile": 6618,
      "ĠÂ·": 6619,
      "Ġspeaking": 6620,
      "Ġsight": 6621,
      "Ġvel": 6622,
      "ï¿½ć": 6623,
      "ĠEst": 6624,
      "ifications": 6625,
      "sembly": 6626,
      "Ġdocuments": 6627,
      "otal": 6628,
      "iale": 6629,
      "Ġphenomen": 6630,
      "Ġadministr": 6631,
      "Ġwouldn": 6632,
      "Ġnuclear": 6633,
      "eper": 6634,
      "ban": 6635,
      "%.": 6636,
      "ION": 6637,
      "hop": 6638,
      "ÃŁ": 6639,
      "ennes": 6640,
      "ĠdÃ©fin": 6641,
      "Ġinfin": 6642,
      "Ġarr": 6643,
      "Ġdepending": 6644,
      "Ġadult": 6645,
      "rance": 6646,
      "Ġni": 6647,
      "Ġwalls": 6648,
      "ï¿½ė": 6649,
      "Ġencoun": 6650,
      "Ġ1999": 6651,
      "Ġmuscle": 6652,
      "Ġsubjects": 6653,
      "Ġgent": 6654,
      "Ġintroduction": 6655,
      "inations": 6656,
      "Ġofficer": 6657,
      "ĠWhe": 6658,
      "ologist": 6659,
      "Ġuns": 6660,
      "ĠLake": 6661,
      "Ġtrop": 6662,
      "anguage": 6663,
      "cÃ©": 6664,
      "iner": 6665,
      "Ġrecorded": 6666,
      "Ġnorthern": 6667,
      "Ġstated": 6668,
      "Ġreform": 6669,
      "Ġgram": 6670,
      "Ġtraffic": 6671,
      "Ġcab": 6672,
      "Ġlabel": 6673,
      "Ġexchange": 6674,
      "fd": 6675,
      "oral": 6676,
      "Ġrepeated": 6677,
      "ĠEngine": 6678,
      "Ġpor": 6679,
      "rou": 6680,
      "Ġ1980": 6681,
      "eties": 6682,
      "ffee": 6683,
      "ĠFort": 6684,
      "Ġextent": 6685,
      "Ġcausing": 6686,
      "Ġsituations": 6687,
      "ĠWrit": 6688,
      "Ġreaders": 6689,
      "ĠSuch": 6690,
      "Ġcapable": 6691,
      "ofthe": 6692,
      "Ġdollars": 6693,
      "Ġliquid": 6694,
      "Ã¤Ã¤": 6695,
      ".\"},": 6696,
      "Ġsport": 6697,
      "ĠFacebook": 6698,
      "bridge": 6699,
      "Ġera": 6700,
      "Ġflood": 6701,
      "Ġsubsequ": 6702,
      "ĠWomen": 6703,
      "ĠFood": 6704,
      "La": 6705,
      "Ġplastic": 6706,
      "ĠFree": 6707,
      "Ġkinds": 6708,
      "ifferent": 6709,
      ".âĢĻ": 6710,
      "OW": 6711,
      "Ġdebt": 6712,
      "Ġshares": 6713,
      "Ġye": 6714,
      "Ġworse": 6715,
      "Ġcreative": 6716,
      "agers": 6717,
      "Ġmainten": 6718,
      "Ġobtain": 6719,
      "Ġimplementation": 6720,
      "ĠManagement": 6721,
      "Ġcatch": 6722,
      "ĠThose": 6723,
      "umer": 6724,
      "Ġraise": 6725,
      "cknow": 6726,
      "Ġforg": 6727,
      "ĠBerlin": 6728,
      "rey": 6729,
      "Ġcrisis": 6730,
      "ĠBusiness": 6731,
      "Ġrevolution": 6732,
      "erves": 6733,
      "ĠJohnson": 6734,
      "Ġrepresented": 6735,
      "Ġagreement": 6736,
      "Ġroy": 6737,
      "Ġtwice": 6738,
      "Ġgoods": 6739,
      "oit": 6740,
      "rt": 6741,
      "ĠdÃ©but": 6742,
      "mm": 6743,
      "ĠGar": 6744,
      "Ġresponsibility": 6745,
      "ocked": 6746,
      "Ġgrande": 6747,
      "Ġhousehold": 6748,
      "lines": 6749,
      "Ġchain": 6750,
      "ading": 6751,
      "Ġdiabetes": 6752,
      "Ġterror": 6753,
      "tres": 6754,
      "Ġ}\\": 6755,
      "Ġcup": 6756,
      "ĠDen": 6757,
      "Ġmunicip": 6758,
      "ushing": 6759,
      "ruits": 6760,
      "ĠVen": 6761,
      "Ġjoined": 6762,
      "bet": 6763,
      "lt": 6764,
      "prise": 6765,
      "iration": 6766,
      "ĠIll": 6767,
      "greg": 6768,
      "Ġcircuit": 6769,
      "Ġhero": 6770,
      "Ġneut": 6771,
      "uing": 6772,
      "ï¿½ĕ": 6773,
      "ceived": 6774,
      "top": 6775,
      "Ġca": 6776,
      "ĠThrough": 6777,
      "Ãītat": 6778,
      "Ġdepends": 6779,
      "ĠKore": 6780,
      "Ġprotest": 6781,
      "riculum": 6782,
      "ĠWal": 6783,
      "Ġthin": 6784,
      "mi": 6785,
      "writ": 6786,
      "Ġben": 6787,
      "ĠInf": 6788,
      "Ġended": 6789,
      "Ġcards": 6790,
      "Ġimper": 6791,
      "Ġmissing": 6792,
      "Ġthir": 6793,
      "ifs": 6794,
      "Ġgrass": 6795,
      "Ġanxiety": 6796,
      "Ġlit": 6797,
      "Ġevening": 6798,
      "Ġmanufacture": 6799,
      "ĠConn": 6800,
      "ĠCast": 6801,
      "ĠOnly": 6802,
      "ĠSon": 6803,
      "Ġbrand": 6804,
      "Ġguard": 6805,
      "section": 6806,
      "pet": 6807,
      "Ġvaluable": 6808,
      "Ġstick": 6809,
      "Ġenf": 6810,
      "Ã©rÃ©": 6811,
      "left": 6812,
      "Ġbiggest": 6813,
      "osph": 6814,
      "ĠTim": 6815,
      "ĠPlay": 6816,
      "ko": 6817,
      "Ġreducing": 6818,
      "rastructure": 6819,
      "istical": 6820,
      "ĠÂ£": 6821,
      "ĠMax": 6822,
      "Ġmedicine": 6823,
      "ĠTimes": 6824,
      "ĠMrs": 6825,
      "Ġplays": 6826,
      "ĠWood": 6827,
      "Ġremaining": 6828,
      "Ġtrouve": 6829,
      "Ġtant": 6830,
      "Ġcontribute": 6831,
      "Ġoutcomes": 6832,
      "Ġbrit": 6833,
      "Ġsick": 6834,
      "ML": 6835,
      "ĠSov": 6836,
      "ĠBern": 6837,
      "Ġsweet": 6838,
      "Ġtells": 6839,
      "Ġelimin": 6840,
      "ĠSud": 6841,
      "Ġopposite": 6842,
      "Mar": 6843,
      "Ġphysics": 6844,
      "Ġinstrument": 6845,
      "oking": 6846,
      "ĠLab": 6847,
      "cia": 6848,
      "ĠItaly": 6849,
      "Ġclinical": 6850,
      "Ġflowers": 6851,
      "Ġlargely": 6852,
      "being": 6853,
      "ĠLeague": 6854,
      "Ġprofit": 6855,
      "Ġpromote": 6856,
      "Ġindu": 6857,
      "Ġinsect": 6858,
      "ĠUne": 6859,
      "Ġ2022": 6860,
      "Ġpossibly": 6861,
      "IF": 6862,
      "ĠmÃ©d": 6863,
      "oster": 6864,
      "uer": 6865,
      "icon": 6866,
      "ĠList": 6867,
      "Ġselection": 6868,
      "Ġsentence": 6869,
      "Ġocean": 6870,
      "Ġnations": 6871,
      "Ġfalse": 6872,
      "IP": 6873,
      "azing": 6874,
      "Ġrub": 6875,
      "ĠThanks": 6876,
      "TAGG": 6877,
      "Ġpersons": 6878,
      "Ġprocedure": 6879,
      "Ġstreet": 6880,
      "Ġwear": 6881,
      "Ġfilms": 6882,
      "Ġnarrow": 6883,
      "ĠMiddle": 6884,
      "Ġcrime": 6885,
      "ĠMedic": 6886,
      "Ġhat": 6887,
      "Ġhelpful": 6888,
      "Ġstarts": 6889,
      "him": 6890,
      "Ġtrouble": 6891,
      "Ġgene": 6892,
      "Ġherself": 6893,
      "ogy": 6894,
      "ĠDire": 6895,
      "Ġ\\\\(": 6896,
      "uster": 6897,
      "Ġalle": 6898,
      "Ġtrad": 6899,
      "cient": 6900,
      "bel": 6901,
      "Ġentered": 6902,
      "istered": 6903,
      "ĠPhilipp": 6904,
      "Ġpopulations": 6905,
      "athy": 6906,
      "Ġconclusion": 6907,
      "Ġclosely": 6908,
      "Ġcircle": 6909,
      "cor": 6910,
      "pert": 6911,
      "Ġdomestic": 6912,
      "using": 6913,
      "Ġoccurred": 6914,
      "ĠSea": 6915,
      "Ġissued": 6916,
      "mann": 6917,
      "ilding": 6918,
      "========": 6919,
      "cluded": 6920,
      "Ġensuring": 6921,
      "Ġnouve": 6922,
      "Ġunderstood": 6923,
      "real": 6924,
      "idelines": 6925,
      "ĠStar": 6926,
      "Ġholding": 6927,
      "CAAAA": 6928,
      "Ġwire": 6929,
      "Ġtruly": 6930,
      "ĠKnow": 6931,
      "ublique": 6932,
      "Ġpoet": 6933,
      "Ġfeedback": 6934,
      "Ġseed": 6935,
      "ĠLee": 6936,
      "cluding": 6937,
      "Ġaccepted": 6938,
      "ĠSign": 6939,
      "Ġbear": 6940,
      "Ġextended": 6941,
      "OP": 6942,
      "ĠPers": 6943,
      "Ġdatabase": 6944,
      "ĠVictor": 6945,
      "Ġimmune": 6946,
      "ĠColumb": 6947,
      "oding": 6948,
      "cho": 6949,
      "nic": 6950,
      "rics": 6951,
      "Ġ1998": 6952,
      "ĪĴ": 6953,
      "Ġaccident": 6954,
      "Ġoblig": 6955,
      "Ġframework": 6956,
      "Ġwilling": 6957,
      "Ġaward": 6958,
      "uation": 6959,
      "Ġath": 6960,
      "Ġforme": 6961,
      "Ġapproaches": 6962,
      "Ġcars": 6963,
      "clusive": 6964,
      "Ġsucceed": 6965,
      "Ġmeat": 6966,
      "Ġpotentially": 6967,
      "ï¿½+": 6968,
      "oln": 6969,
      "oves": 6970,
      "about": 6971,
      "Ġconserv": 6972,
      "last": 6973,
      "Ġdesire": 6974,
      "Ġafford": 6975,
      "âĶĢâĶĢâĶĢâĶĢ": 6976,
      "ĠTechnology": 6977,
      "Ġcontaining": 6978,
      "ĠMicro": 6979,
      "Ġmarkets": 6980,
      "phone": 6981,
      "acts": 6982,
      "Ġequivalent": 6983,
      "ĠCivil": 6984,
      "azine": 6985,
      "Ġmarried": 6986,
      "=\\\"": 6987,
      "olars": 6988,
      "OU": 6989,
      "ĠDesign": 6990,
      "Ġhoriz": 6991,
      "ĠMen": 6992,
      "ĠElle": 6993,
      "Ġindicate": 6994,
      "nR": 6995,
      "Ġtissue": 6996,
      "bG": 6997,
      "sen": 6998,
      "Ã´le": 6999,
      "Ġ..": 7000,
      "Ġsalt": 7001,
      "ĠRoyal": 7002,
      "ĠHave": 7003,
      "Ġasking": 7004,
      "olve": 7005,
      "autres": 7006,
      "Ġtips": 7007,
      "Ġhouses": 7008,
      "gs": 7009,
      "Ġhur": 7010,
      "onym": 7011,
      "ordan": 7012,
      "Ġslowly": 7013,
      "Ġreduction": 7014,
      "Ġparameters": 7015,
      "Ġfinished": 7016,
      "Ġcustomer": 7017,
      "ĠPan": 7018,
      "Ġdepart": 7019,
      "ĠCheck": 7020,
      "rents": 7021,
      "Ġmusical": 7022,
      "Ġdomain": 7023,
      "owing": 7024,
      "Ġital": 7025,
      "inding": 7026,
      "aked": 7027,
      "Ġfighting": 7028,
      "Ġyield": 7029,
      "Ġlinked": 7030,
      "Ġmoral": 7031,
      "Ġextreme": 7032,
      "Ġintellect": 7033,
      "stone": 7034,
      "PR": 7035,
      "hol": 7036,
      "Ġble": 7037,
      "Ġpositions": 7038,
      "Ġring": 7039,
      "ĠLook": 7040,
      "ĠreprÃ©s": 7041,
      "Ġdess": 7042,
      "free": 7043,
      "rue": 7044,
      "Ġphr": 7045,
      "Ġgather": 7046,
      "Ind": 7047,
      "Ġbreath": 7048,
      "Ġextract": 7049,
      "Ġdepos": 7050,
      "Ġinsurance": 7051,
      "LC": 7052,
      "Ġagreed": 7053,
      "ĠMult": 7054,
      "Ġcircumstances": 7055,
      "Ġcourses": 7056,
      "Ġdefine": 7057,
      "ĠespÃ¨": 7058,
      "Ġsubstant": 7059,
      "Ġcorner": 7060,
      "Ġgenerate": 7061,
      "Ġchef": 7062,
      "Ġmainly": 7063,
      "Ġdecide": 7064,
      "Ġrig": 7065,
      "Ġshell": 7066,
      "Ġmemb": 7067,
      "Ġwriter": 7068,
      "Ġlect": 7069,
      "Ġcogn": 7070,
      "Ġparallel": 7071,
      "aded": 7072,
      "Ġwitness": 7073,
      "ĠResp": 7074,
      "300": 7075,
      "Ġdepression": 7076,
      "Ġfeelings": 7077,
      "ĠLos": 7078,
      "Ġmanaged": 7079,
      "Ġmeasured": 7080,
      "Ġengage": 7081,
      "ĠParty": 7082,
      "2014": 7083,
      "opyright": 7084,
      "Ġmarriage": 7085,
      "Ġped": 7086,
      "Ġgrew": 7087,
      "ĠPour": 7088,
      "ĠFil": 7089,
      "Ġleurs": 7090,
      "Ġunknown": 7091,
      "Ġarrange": 7092,
      "ĠsÃ©rie": 7093,
      "Ġcloud": 7094,
      "ĠRom": 7095,
      "Ġproceed": 7096,
      "Ġaccounts": 7097,
      "ĠLatin": 7098,
      "ĠTake": 7099,
      "ograp": 7100,
      "()": 7101,
      "step": 7102,
      "Ġstudied": 7103,
      "elect": 7104,
      "Ġaccel": 7105,
      "imental": 7106,
      "Ġgender": 7107,
      "Ġconsequences": 7108,
      "Ġnoise": 7109,
      "Ġforth": 7110,
      "ĠPacific": 7111,
      "Ġfill": 7112,
      "Ġhomme": 7113,
      "Ġartist": 7114,
      "Ġ1970": 7115,
      "ĠCanadian": 7116,
      "IM": 7117,
      "GGGG": 7118,
      "ifies": 7119,
      "Ġjump": 7120,
      "Ġgro": 7121,
      "Ġexposed": 7122,
      "omic": 7123,
      "antes": 7124,
      "atique": 7125,
      "Ġmovie": 7126,
      "ĠLo": 7127,
      "Ġmedium": 7128,
      "Ġtherm": 7129,
      "Äģ": 7130,
      "Ġoxygen": 7131,
      "Ġpra": 7132,
      "Ġshut": 7133,
      "Ġfilter": 7134,
      "ĠHa": 7135,
      "faces": 7136,
      "roduct": 7137,
      "Ġresidents": 7138,
      "racy": 7139,
      "Ġ1960": 7140,
      "Ġborder": 7141,
      "OC": 7142,
      "Ġlessons": 7143,
      "Ġswitch": 7144,
      "Ġpaint": 7145,
      "ĠVirginia": 7146,
      "Ġfils": 7147,
      "Ġvulner": 7148,
      "Ġsky": 7149,
      "Ġminute": 7150,
      "ĠEnergy": 7151,
      "Ġmine": 7152,
      "One": 7153,
      "Ġpictures": 7154,
      "ĠExp": 7155,
      "Ġbone": 7156,
      "Ġrural": 7157,
      "Ġorganic": 7158,
      "Ġvolt": 7159,
      "Ġstatistics": 7160,
      "Ġshel": 7161,
      "Ġinches": 7162,
      "trans": 7163,
      "aria": 7164,
      "Ġthrow": 7165,
      "Ġpowers": 7166,
      "ĠRock": 7167,
      "Ġinstruction": 7168,
      "imensional": 7169,
      "Ġmassive": 7170,
      "Ġseconds": 7171,
      "Ġdiscipl": 7172,
      "Ġtemperatures": 7173,
      "Ġneither": 7174,
      "Ġconsists": 7175,
      "Ġdrawn": 7176,
      "Ġhundreds": 7177,
      "ĠMinister": 7178,
      "ĠFlorida": 7179,
      "Ġcaught": 7180,
      "ĠOx": 7181,
      "Ġton": 7182,
      "Ġatmosphere": 7183,
      "Ã©ro": 7184,
      "Ġemergency": 7185,
      "Ġlisten": 7186,
      "yan": 7187,
      "mond": 7188,
      "Ġchair": 7189,
      "Ġadvoc": 7190,
      "Ġflight": 7191,
      "ĠDiscuss": 7192,
      "Ġnetworks": 7193,
      "Ġreject": 7194,
      "Ġrestrict": 7195,
      "Ġrecognized": 7196,
      "levision": 7197,
      "gent": 7198,
      "ibilities": 7199,
      "ycl": 7200,
      "ologists": 7201,
      "ĠCa": 7202,
      "Ġvac": 7203,
      "plicated": 7204,
      "ĠTreat": 7205,
      "Ġantib": 7206,
      "Ġrevealed": 7207,
      "db": 7208,
      "Ġcompetition": 7209,
      "ĠmÃ©t": 7210,
      "Ġshift": 7211,
      "Ġforget": 7212,
      "Ġelectricity": 7213,
      "Ġdipl": 7214,
      "Ġuniverse": 7215,
      "Com": 7216,
      "Ġruns": 7217,
      "lers": 7218,
      "Ġnewsp": 7219,
      "Ġfavorite": 7220,
      "rons": 7221,
      "Ġ</": 7222,
      "ĠGard": 7223,
      "Ġtrip": 7224,
      "isters": 7225,
      "Ġpark": 7226,
      "Ġconsidering": 7227,
      "were": 7228,
      "cules": 7229,
      "à°": 7230,
      "Ġmarked": 7231,
      "Ġrenew": 7232,
      "omial": 7233,
      "cience": 7234,
      "Ġacknow": 7235,
      "oston": 7236,
      "ship": 7237,
      "Ġsuitable": 7238,
      "Ġsup": 7239,
      "eting": 7240,
      "Ġwestern": 7241,
      "Ġgenerated": 7242,
      "ĠEss": 7243,
      "Ġboys": 7244,
      "roke": 7245,
      "SP": 7246,
      "cers": 7247,
      "LA": 7248,
      "claim": 7249,
      "Ġends": 7250,
      "Ġskill": 7251,
      "Ġdownload": 7252,
      "Ġemissions": 7253,
      "Ġvital": 7254,
      "Ġpron": 7255,
      "ĠMais": 7256,
      "aven": 7257,
      "ificial": 7258,
      "Ġdelay": 7259,
      "Ġgrown": 7260,
      "Ġmac": 7261,
      "Ġsmooth": 7262,
      "after": 7263,
      "ĠWall": 7264,
      "Ġconsistent": 7265,
      "Ġexplains": 7266,
      "mo": 7267,
      "ĠHistor": 7268,
      "ĠTH": 7269,
      "Ġoffering": 7270,
      "Ġsenior": 7271,
      "Ġexecutive": 7272,
      "Ġprepare": 7273,
      "ĠPenn": 7274,
      "Ġtypical": 7275,
      "such": 7276,
      "Ġlang": 7277,
      "ĠFinally": 7278,
      "ĠDespite": 7279,
      "Ġvictory": 7280,
      "Ġregul": 7281,
      "ĠLog": 7282,
      "Ġ300": 7283,
      "ket": 7284,
      "Ġempt": 7285,
      "Ġships": 7286,
      "Ġexists": 7287,
      "Ġmond": 7288,
      "Ġassume": 7289,
      "---|---|": 7290,
      "Ġroots": 7291,
      "Ġpurchase": 7292,
      "Ġprofessor": 7293,
      "Ġdonc": 7294,
      "ĠCat": 7295,
      "Gen": 7296,
      "ĠPrem": 7297,
      "Ġelev": 7298,
      "TGTA": 7299,
      "fol": 7300,
      "Ġfest": 7301,
      "iac": 7302,
      "Ġ36": 7303,
      "Ne": 7304,
      "Ġawareness": 7305,
      "utch": 7306,
      "Ġsession": 7307,
      "herent": 7308,
      "Ġfunding": 7309,
      "Ġentry": 7310,
      "aille": 7311,
      "Ġconcentration": 7312,
      "Ġmyth": 7313,
      "ho": 7314,
      "ĠTwitter": 7315,
      "ãģ": 7316,
      "Ġnice": 7317,
      "Ġbird": 7318,
      "Ġvisible": 7319,
      "Ġexplanation": 7320,
      "utely": 7321,
      "Ġcoverage": 7322,
      "Ġdebate": 7323,
      "Ġnutrition": 7324,
      "Ġol": 7325,
      "ĠCommon": 7326,
      "Ġconstitution": 7327,
      "Ġcalculate": 7328,
      "Ġdrawing": 7329,
      "Ġmixed": 7330,
      "Ġrein": 7331,
      "Ġtor": 7332,
      "ieux": 7333,
      "Ġnit": 7334,
      "Ġfunds": 7335,
      "box": 7336,
      "Ġdepartment": 7337,
      "ĠEll": 7338,
      "ĠPop": 7339,
      "Ġmanager": 7340,
      "Ġalbum": 7341,
      "Ġsubt": 7342,
      "abs": 7343,
      "Ġlies": 7344,
      "Ġsamples": 7345,
      "ĠMethod": 7346,
      "ZSB": 7347,
      "Ġconsid": 7348,
      "Ġtren": 7349,
      "Ġfashion": 7350,
      "Ġphotos": 7351,
      "ĠHaw": 7352,
      "ĠJeff": 7353,
      "icious": 7354,
      "ĠLibrary": 7355,
      "cb": 7356,
      "Ġcomparison": 7357,
      "Ġusual": 7358,
      "ĠProfessor": 7359,
      "zo": 7360,
      "iot": 7361,
      "rine": 7362,
      "ĠCatholic": 7363,
      "incoln": 7364,
      "ĠVe": 7365,
      "Ġconservation": 7366,
      "ogether": 7367,
      "ĠColl": 7368,
      "ĠChapter": 7369,
      "Ġcollected": 7370,
      "Ġcenturies": 7371,
      "Ġbritann": 7372,
      "ĠPri": 7373,
      "Ġhabitat": 7374,
      "Ġamounts": 7375,
      "GATA": 7376,
      "oured": 7377,
      "Ġordered": 7378,
      "Ġtum": 7379,
      "Ġloved": 7380,
      "Ġmatters": 7381,
      ",'": 7382,
      "ĠprÃ©sident": 7383,
      "origine": 7384,
      "fit": 7385,
      "their": 7386,
      "ĠCH": 7387,
      "Ġprime": 7388,
      "Ġsurrounding": 7389,
      "hus": 7390,
      "fois": 7391,
      "Ġestimate": 7392,
      "Ġinstructions": 7393,
      "Ġuniform": 7394,
      "Ġpartner": 7395,
      "ĠReport": 7396,
      "inois": 7397,
      ".[": 7398,
      "Ġwa": 7399,
      "ĠAnalysis": 7400,
      "ĠNic": 7401,
      "Ġparticles": 7402,
      "ĠDig": 7403,
      "Ġastron": 7404,
      "ĠPub": 7405,
      "pha": 7406,
      "ĠtÃ©l": 7407,
      "Ġdensity": 7408,
      "Ġpossibility": 7409,
      "ĠItalian": 7410,
      "Ġputting": 7411,
      "Ġlaun": 7412,
      "child": 7413,
      "Ġturns": 7414,
      "ĠFederal": 7415,
      "Ġcorresponding": 7416,
      "Ġthanks": 7417,
      "ĠmÃ©": 7418,
      "###": 7419,
      "ĠSpace": 7420,
      "Ġpendant": 7421,
      "Ġhors": 7422,
      "hyd": 7423,
      "Ġec": 7424,
      "Ġcontinuous": 7425,
      "rated": 7426,
      "Ġlots": 7427,
      "Ġpassion": 7428,
      "isk": 7429,
      "lemagne": 7430,
      "Åĵuv": 7431,
      "Ã¤Ã¤n": 7432,
      "Ġpit": 7433,
      "Ġpolitics": 7434,
      "sk": 7435,
      "ĠSource": 7436,
      "print": 7437,
      "Ġfluid": 7438,
      "pper": 7439,
      "inking": 7440,
      "ĠBob": 7441,
      "Ġpeint": 7442,
      "Ġspoke": 7443,
      "ĠAD": 7444,
      "ĠMur": 7445,
      "Ġquiet": 7446,
      "ĠCommittee": 7447,
      "ĠBab": 7448,
      "ĠAustralian": 7449,
      "MT": 7450,
      "abeth": 7451,
      ".--": 7452,
      "dule": 7453,
      "Ġmanip": 7454,
      "Ġstopped": 7455,
      "ĠScot": 7456,
      "Ġplain": 7457,
      "Ġconven": 7458,
      "nP": 7459,
      "acher": 7460,
      "bes": 7461,
      "Ġmand": 7462,
      "Ġgal": 7463,
      "Ġdress": 7464,
      "Ġprompt": 7465,
      "fÃ©": 7466,
      "Ġconvent": 7467,
      "Ġaccuracy": 7468,
      "Ġerrors": 7469,
      "Ġ33": 7470,
      "Ġjudge": 7471,
      "Ġexpensive": 7472,
      "Ġspaces": 7473,
      "Ġsubm": 7474,
      "ĠSpain": 7475,
      "ĠExt": 7476,
      "Ġrapidly": 7477,
      "ĠOhio": 7478,
      "low": 7479,
      "Ġuncertain": 7480,
      "Ġproved": 7481,
      "oting": 7482,
      "ĠPo": 7483,
      "isp": 7484,
      "Ġsigned": 7485,
      "ĠDown": 7486,
      "Ġwaiting": 7487,
      "erman": 7488,
      "Ġstatements": 7489,
      "Ġhealthcare": 7490,
      "Ġcloser": 7491,
      "Ġsustainable": 7492,
      "Ġ;\\": 7493,
      "oom": 7494,
      "Ġhaven": 7495,
      "Ġstruggle": 7496,
      "Ġorders": 7497,
      "obs": 7498,
      "Ġpapers": 7499,
      "ĠSar": 7500,
      "400": 7501,
      "Art": 7502,
      "iger": 7503,
      "ĠNext": 7504,
      "Ġtele": 7505,
      "stream": 7506,
      "ĠAprÃ¨s": 7507,
      "nÃ©e": 7508,
      "Ġinfrastructure": 7509,
      "struct": 7510,
      "Ġgenre": 7511,
      "Ġvehicles": 7512,
      "fb": 7513,
      "Ġauthorities": 7514,
      "Ġquantum": 7515,
      "Ġprimarily": 7516,
      "Ġcelle": 7517,
      "Ġreader": 7518,
      "usse": 7519,
      "Ġfellow": 7520,
      "gers": 7521,
      "ENT": 7522,
      "Ġsomewhat": 7523,
      "Ġcolour": 7524,
      "Ġlaunch": 7525,
      "Ġsynd": 7526,
      "Ġdiverse": 7527,
      "Ġcarefully": 7528,
      "Ġthread": 7529,
      "Ġimmediate": 7530,
      "Ġhonor": 7531,
      "ĠJim": 7532,
      "isode": 7533,
      "conn": 7534,
      "Ġincreasingly": 7535,
      "iana": 7536,
      "Ġframe": 7537,
      "Ġ150": 7538,
      "hui": 7539,
      "ensus": 7540,
      "Ġmarketing": 7541,
      "Ġcham": 7542,
      "owed": 7543,
      "ĠKeep": 7544,
      "EO": 7545,
      "Ġsurgery": 7546,
      "BS": 7547,
      "Ġchronic": 7548,
      "GACA": 7549,
      "Ġlos": 7550,
      "Ġwaters": 7551,
      "ĠCult": 7552,
      "Ġmuscles": 7553,
      "Ġcraft": 7554,
      "agues": 7555,
      "Ġcompare": 7556,
      "ĠSet": 7557,
      "Ġdefense": 7558,
      "Ġages": 7559,
      "Ġfan": 7560,
      "Ġwet": 7561,
      "Ġguar": 7562,
      "Ġbeauty": 7563,
      "Ġsubstance": 7564,
      "Ġ1997": 7565,
      "ĠSoviet": 7566,
      "Ġeggs": 7567,
      "ĠDoes": 7568,
      "ĠNon": 7569,
      "Ġbat": 7570,
      "called": 7571,
      "Ġrefuge": 7572,
      "ĠGlobal": 7573,
      "Im": 7574,
      "Ġlisted": 7575,
      "Ġconference": 7576,
      "rep": 7577,
      "Ġfacilit": 7578,
      "Ġderived": 7579,
      "ĠThree": 7580,
      "American": 7581,
      "ĠEmpire": 7582,
      "asy": 7583,
      "iden": 7584,
      "{\\": 7585,
      "Î¹": 7586,
      "rÃ¨s": 7587,
      "Ġmoon": 7588,
      "III": 7589,
      "ĠSubject": 7590,
      "Ġtight": 7591,
      "Ġourselves": 7592,
      "Ġperiods": 7593,
      "Ġagency": 7594,
      "Ġbon": 7595,
      "worth": 7596,
      "ĠThough": 7597,
      "Ġcompr": 7598,
      "Ġcycl": 7599,
      "Ġsuffering": 7600,
      "Ġnive": 7601,
      "Ġwaves": 7602,
      "Ġseeds": 7603,
      "Ġcoffee": 7604,
      "Ġrestaur": 7605,
      "Ġrid": 7606,
      "Ġneighbor": 7607,
      "Ġalgorithms": 7608,
      "type": 7609,
      "ĠJackson": 7610,
      "lets": 7611,
      "ifier": 7612,
      "VID": 7613,
      "Ġmerely": 7614,
      "Ġpassing": 7615,
      "import": 7616,
      "ĠWhich": 7617,
      "ĠFoundation": 7618,
      "Sp": 7619,
      "Ġpush": 7620,
      "ĠThank": 7621,
      "ĠLim": 7622,
      "Ġvoy": 7623,
      "Ġdiscovery": 7624,
      "Ġacts": 7625,
      "Ġcomposition": 7626,
      "Ġcultiv": 7627,
      "Ġbanks": 7628,
      "ĠAuthor": 7629,
      "Ġdevient": 7630,
      "Ġcontrolled": 7631,
      "ĠNAS": 7632,
      "mic": 7633,
      "rosc": 7634,
      "Ġnecessarily": 7635,
      "arks": 7636,
      "Ġrespectively": 7637,
      "Ġdescribes": 7638,
      "ishment": 7639,
      "Ġnaturally": 7640,
      "world": 7641,
      "zil": 7642,
      "ĠSecret": 7643,
      "Ġreturns": 7644,
      "ĠBible": 7645,
      "Ġtooth": 7646,
      "Ġfarmers": 7647,
      "Ġ!": 7648,
      "Ġfro": 7649,
      "ican": 7650,
      "GGAGG": 7651,
      "Ġcamera": 7652,
      "Ġgeometry": 7653,
      "Ġbatt": 7654,
      "Ġspending": 7655,
      "ployment": 7656,
      "ĠCopyright": 7657,
      "Ġvolunte": 7658,
      "Ġwalking": 7659,
      "Ġpip": 7660,
      "ĠValley": 7661,
      "Ġcircul": 7662,
      "ĠSouthern": 7663,
      "ĠChristmas": 7664,
      "Ġemployed": 7665,
      "Ġcapit": 7666,
      "ĠOk": 7667,
      "ĠFour": 7668,
      "outs": 7669,
      "ivery": 7670,
      "Ġholds": 7671,
      "Ġbridge": 7672,
      "Ġtone": 7673,
      "Ġuniversity": 7674,
      "issement": 7675,
      "igan": 7676,
      "Ġinvestigation": 7677,
      "Ġfurn": 7678,
      "gence": 7679,
      "ĠCro": 7680,
      "dy": 7681,
      "Ġdisorders": 7682,
      "Ġbrown": 7683,
      "ĠBoard": 7684,
      "ĠSpecial": 7685,
      "Ġrecovery": 7686,
      "Ġunable": 7687,
      "oly": 7688,
      "Ġtoute": 7689,
      "aph": 7690,
      "Ġdiagram": 7691,
      "Ġabuse": 7692,
      ";\\": 7693,
      "Ġboost": 7694,
      "Ġmountain": 7695,
      "Ã¨de": 7696,
      "dec": 7697,
      "wered": 7698,
      "ĠPerson": 7699,
      "âĢķ": 7700,
      "Ġod": 7701,
      "Ġreact": 7702,
      "Ġell": 7703,
      "angers": 7704,
      "ĠMedical": 7705,
      "GE": 7706,
      "Ġnu": 7707,
      "rovers": 7708,
      "Ġadvert": 7709,
      "Ġlaid": 7710,
      "Ġcolors": 7711,
      "Ġtick": 7712,
      "Cont": 7713,
      "cest": 7714,
      "Ġelectrical": 7715,
      "Ġrecognize": 7716,
      "Ġowner": 7717,
      "Ġreplaced": 7718,
      "Ġcategory": 7719,
      "Don": 7720,
      "Ġchez": 7721,
      "ĠAdv": 7722,
      "CCTA": 7723,
      "Ġmonitoring": 7724,
      "Ġclar": 7725,
      "ĠST": 7726,
      "agraph": 7727,
      "Ġkit": 7728,
      "usal": 7729,
      "Ġdifficulty": 7730,
      "Ġdance": 7731,
      "ela": 7732,
      "soft": 7733,
      "essions": 7734,
      "Us": 7735,
      "Ġfacilities": 7736,
      "ker": 7737,
      "Ġdrinking": 7738,
      "Ġassistance": 7739,
      "Ġturning": 7740,
      "ĠUSA": 7741,
      "Ġcoach": 7742,
      "Ġrefers": 7743,
      "Ġachieved": 7744,
      "ici": 7745,
      "Ġlimits": 7746,
      "osh": 7747,
      "Ġexpansion": 7748,
      "Ġrising": 7749,
      "Ġpercentage": 7750,
      "ĠDistrict": 7751,
      "Ġoriginally": 7752,
      "non": 7753,
      "Ġimplications": 7754,
      "zer": 7755,
      "Go": 7756,
      "Ġdispos": 7757,
      "ws": 7758,
      "ĠBow": 7759,
      "ĠPract": 7760,
      "Ġcurve": 7761,
      "ĠNations": 7762,
      "lik": 7763,
      "ĠprÃ©sent": 7764,
      "Ġfoss": 7765,
      "gments": 7766,
      "Ġfly": 7767,
      "itative": 7768,
      "Ġinstitution": 7769,
      "ila": 7770,
      "Ġdens": 7771,
      "irt": 7772,
      "riers": 7773,
      "Ġarts": 7774,
      "utation": 7775,
      "Ġcrim": 7776,
      "ĠIntroduction": 7777,
      "ĠRoad": 7778,
      "ocity": 7779,
      "Ġnegot": 7780,
      "Ġcommission": 7781,
      "ells": 7782,
      "rible": 7783,
      "Ġphoto": 7784,
      "Te": 7785,
      "Ġradiation": 7786,
      "cycl": 7787,
      "Ġclient": 7788,
      "ĠOper": 7789,
      "Ġtall": 7790,
      "ĠMcC": 7791,
      "Ġsitting": 7792,
      "ĠIV": 7793,
      "uin": 7794,
      "Ġadopted": 7795,
      "Ã±": 7796,
      "Ġmovements": 7797,
      "Ġsharing": 7798,
      "ĠColor": 7799,
      "ĠPolice": 7800,
      "Ġneck": 7801,
      "ĠSecurity": 7802,
      "Ġproportion": 7803,
      "ĠNa": 7804,
      "habit": 7805,
      "ĠAngeles": 7806,
      "iversitÃ©": 7807,
      "Ġkne": 7808,
      "Ġsacr": 7809,
      "Ġfoundation": 7810,
      "Ġthorough": 7811,
      "Ġextensive": 7812,
      "Ġspiritual": 7813,
      "ourse": 7814,
      "ĠEt": 7815,
      "bec": 7816,
      "sts": 7817,
      "rency": 7818,
      "reland": 7819,
      "bered": 7820,
      "di": 7821,
      "ĠVan": 7822,
      "Ġhttps": 7823,
      "empl": 7824,
      "Ġ00": 7825,
      "Ġstable": 7826,
      "ighter": 7827,
      "ĠBir": 7828,
      "ĠNord": 7829,
      "ĠFred": 7830,
      "ĠPolit": 7831,
      "Ġsuit": 7832,
      "Ġ75": 7833,
      "date": 7834,
      "Ġgreatly": 7835,
      "ĠJava": 7836,
      "ĠBoston": 7837,
      "Ġchoices": 7838,
      "ĠCarolina": 7839,
      "Ġlung": 7840,
      "Ġtaste": 7841,
      "ione": 7842,
      "Ġhorm": 7843,
      "Ġsteel": 7844,
      "Ġdeclared": 7845,
      "Ġmari": 7846,
      "ented": 7847,
      "LS": 7848,
      "Ġmas": 7849,
      "ĠControl": 7850,
      "xp": 7851,
      "ĠAk": 7852,
      "iler": 7853,
      "iano": 7854,
      "Ġspr": 7855,
      "ori": 7856,
      "Ġaqu": 7857,
      "Ġconstra": 7858,
      "icate": 7859,
      "ested": 7860,
      "effect": 7861,
      "Ġ1995": 7862,
      "Ġsilver": 7863,
      "TTGG": 7864,
      "Ġincident": 7865,
      "ĠJones": 7866,
      "Ġinflam": 7867,
      "Ġabandon": 7868,
      "Ġthy": 7869,
      "ipping": 7870,
      "Ġcommitted": 7871,
      "chers": 7872,
      "icide": 7873,
      "Ġtested": 7874,
      "jourd": 7875,
      "Ġbread": 7876,
      "cosystem": 7877,
      "ĠStudies": 7878,
      "Ġ1996": 7879,
      "ĠScient": 7880,
      "$.": 7881,
      "Ġserver": 7882,
      "Ġbless": 7883,
      "illy": 7884,
      "ĠSearch": 7885,
      "ĠHor": 7886,
      "Ġconscious": 7887,
      "åħ": 7888,
      "Ġsynthe": 7889,
      "ĠServices": 7890,
      "ĠClick": 7891,
      "Ġrevenue": 7892,
      "Ġimproving": 7893,
      "aul": 7894,
      "gged": 7895,
      "Ã£": 7896,
      "ĠHy": 7897,
      "nger": 7898,
      "iest": 7899,
      "Ġstrict": 7900,
      "Ġcelui": 7901,
      "Ġpollution": 7902,
      "Ġworry": 7903,
      "Ġaccessible": 7904,
      "tÃ¤": 7905,
      "zed": 7906,
      "ĠMusic": 7907,
      "Ġorient": 7908,
      "Ġcalling": 7909,
      "Ġsed": 7910,
      "$,": 7911,
      "Ġregularly": 7912,
      "Ġstead": 7913,
      "uma": 7914,
      "ĠSand": 7915,
      "ĠInvest": 7916,
      "Ġprocedures": 7917,
      "Ġfu": 7918,
      "ocracy": 7919,
      "igrants": 7920,
      "dep": 7921,
      "ĠLincoln": 7922,
      "GT": 7923,
      "Ġphotograph": 7924,
      "atus": 7925,
      "Ġangl": 7926,
      "ĠChamp": 7927,
      "Ġsignificance": 7928,
      "ĠdÃ©f": 7929,
      "2017": 7930,
      "Ġchap": 7931,
      "Ġdism": 7932,
      "Ġflav": 7933,
      "Ġinqu": 7934,
      "ĠConsider": 7935,
      "inction": 7936,
      "Ġcurriculum": 7937,
      "Ġcalculated": 7938,
      "ĠgÃ©nÃ©ral": 7939,
      "izer": 7940,
      "ĠKey": 7941,
      "Ġparticul": 7942,
      "Ġtermin": 7943,
      "cD": 7944,
      "Ã©ment": 7945,
      "Ġinner": 7946,
      "Ġdeaths": 7947,
      "iral": 7948,
      "ĠTri": 7949,
      "hav": 7950,
      "ĠAdditionally": 7951,
      "yles": 7952,
      "Ġquart": 7953,
      "peror": 7954,
      "Ġthank": 7955,
      "Ġresolution": 7956,
      "Ġcant": 7957,
      "Ġcoe": 7958,
      "mail": 7959,
      "Ġclaimed": 7960,
      "Ġprotected": 7961,
      "itudes": 7962,
      ".]": 7963,
      "Ġconnu": 7964,
      "ĠWild": 7965,
      "Ġdust": 7966,
      "hy": 7967,
      "Ãªt": 7968,
      "Ġterritoire": 7969,
      "law": 7970,
      "Ġprofessionals": 7971,
      "earing": 7972,
      "wing": 7973,
      "ali": 7974,
      "ĠMA": 7975,
      "Ġaccord": 7976,
      "ĠLeg": 7977,
      "âĢĿ,": 7978,
      "Ġinteraction": 7979,
      "ĠPython": 7980,
      "ĠAcademy": 7981,
      "Ġyounger": 7982,
      "ĠChief": 7983,
      "ello": 7984,
      "Ġbomb": 7985,
      "ĠSenate": 7986,
      "Ġsections": 7987,
      "Ġlandscape": 7988,
      "ĠĠĠĠĠĠĠĠĠĠĠĠĠĠĠ": 7989,
      "Ġescape": 7990,
      "Ġcombat": 7991,
      "ĠÃ©v": 7992,
      "Ġsuddenly": 7993,
      "ĠConstitution": 7994,
      "quer": 7995,
      "Ġmunicipal": 7996,
      "ruption": 7997,
      "del": 7998,
      "ista": 7999,
      "ĠSometimes": 8000,
      "Ġsecondary": 8001,
      "ĠprÃ¨s": 8002,
      "through": 8003,
      "Ġpover": 8004,
      "Ġstored": 8005,
      "Ġseeking": 8006,
      "Ġdedicated": 8007,
      "Ġwatching": 8008,
      "Ġposted": 8009,
      "Ġrelief": 8010,
      "Ġhypothes": 8011,
      "wa": 8012,
      "oli": 8013,
      "Ġshif": 8014,
      "Ġhall": 8015,
      "ĠExper": 8016,
      "page": 8017,
      "Ġsole": 8018,
      "Ġsensitive": 8019,
      "Ġvend": 8020,
      "Ġguerre": 8021,
      "Ġchose": 8022,
      "idance": 8023,
      "Ġimagine": 8024,
      "ressive": 8025,
      "inces": 8026,
      "who": 8027,
      "Ġseat": 8028,
      "Ġdriver": 8029,
      "ĠsiÃ¨": 8030,
      "Ġsuffer": 8031,
      "eness": 8032,
      "wan": 8033,
      "ucky": 8034,
      "ĠOlymp": 8035,
      "ustration": 8036,
      "ourg": 8037,
      "Of": 8038,
      "Ġexperiments": 8039,
      "Îµ": 8040,
      "ĠDaniel": 8041,
      "run": 8042,
      "%,": 8043,
      "estyle": 8044,
      "Ġdiversity": 8045,
      "abb": 8046,
      "Ġconfirm": 8047,
      "Ġvoc": 8048,
      "nent": 8049,
      "abled": 8050,
      "ĠDev": 8051,
      "Ġimprovement": 8052,
      "Ġquelques": 8053,
      "pling": 8054,
      "ĠMean": 8055,
      "Ġgenes": 8056,
      "101": 8057,
      "ĠYoung": 8058,
      "Ġfract": 8059,
      "adel": 8060,
      "ometric": 8061,
      "ĠGall": 8062,
      "don": 8063,
      "heets": 8064,
      "ĠÃ©crit": 8065,
      "Ġfasc": 8066,
      "anche": 8067,
      "icht": 8068,
      "Ġheads": 8069,
      "Ġmachines": 8070,
      "ĠJun": 8071,
      "Rep": 8072,
      "Ġworst": 8073,
      "Ġknowing": 8074,
      "Ġpoverty": 8075,
      "Ġmaintaining": 8076,
      "Ġpublication": 8077,
      "iture": 8078,
      "vier": 8079,
      "Ġsatell": 8080,
      "making": 8081,
      "Ġ1994": 8082,
      "istre": 8083,
      "ĠTable": 8084,
      "asant": 8085,
      "CCCC": 8086,
      "Ġbutton": 8087,
      "ĠLine": 8088,
      "Ġindicates": 8089,
      "ĠSqu": 8090,
      "sq": 8091,
      "will": 8092,
      "Ġpouv": 8093,
      "Ġroi": 8094,
      "Ġbag": 8095,
      "ĠpÃ©ri": 8096,
      "Ġ\"\\": 8097,
      "Ġcharged": 8098,
      "Ġusage": 8099,
      "Ġinaug": 8100,
      "ĠLearn": 8101,
      "ĠMathematics": 8102,
      "ando": 8103,
      "Ġnurs": 8104,
      "âĢĺ": 8105,
      "Ġdynamic": 8106,
      "ĠLy": 8107,
      "Ġsod": 8108,
      "gre": 8109,
      "iar": 8110,
      "Ġsupporting": 8111,
      "Ġenable": 8112,
      "pes": 8113,
      "aval": 8114,
      "Ġdesired": 8115,
      "Ġmaintenance": 8116,
      "Ġmoves": 8117,
      "Ġwithd": 8118,
      "ĠAmong": 8119,
      "Ġassets": 8120,
      "ĠIreland": 8121,
      "Ġconstitu": 8122,
      "Ġva": 8123,
      "ĠRen": 8124,
      "erts": 8125,
      "ĠMah": 8126,
      "Ġintegration": 8127,
      "ĠKh": 8128,
      "Ġbritannique": 8129,
      "ansas": 8130,
      "UM": 8131,
      "azz": 8132,
      "Ġsyst": 8133,
      "äº": 8134,
      "Ġpresentation": 8135,
      "pi": 8136,
      "Ġlieu": 8137,
      "Ġpermanent": 8138,
      "Ġarchitecture": 8139,
      "Ġagent": 8140,
      "olds": 8141,
      "itage": 8142,
      "po": 8143,
      "ĠTour": 8144,
      "icular": 8145,
      "wg": 8146,
      "acks": 8147,
      "Ġfounded": 8148,
      "Ġsignals": 8149,
      "ĠEdward": 8150,
      "ĠPot": 8151,
      "Ġduty": 8152,
      "CS": 8153,
      "ĠamÃ©ricaine": 8154,
      "Ġlegs": 8155,
      "Ġmessages": 8156,
      "erals": 8157,
      "Ġgouver": 8158,
      "than": 8159,
      "Ġvirtual": 8160,
      "noon": 8161,
      "ivered": 8162,
      "ĠpÃ¨re": 8163,
      "Ġmir": 8164,
      "holders": 8165,
      "Ġcapture": 8166,
      "Ġincred": 8167,
      "Ġdecrease": 8168,
      "Ġrect": 8169,
      "ĠProblem": 8170,
      "Ġaircraft": 8171,
      "eli": 8172,
      "ĠFire": 8173,
      "Ġcontained": 8174,
      "omach": 8175,
      "Ġom": 8176,
      "Ġcm": 8177,
      "abl": 8178,
      "ati": 8179,
      "Ġpubl": 8180,
      "Ġsought": 8181,
      "Ġ37": 8182,
      "ĠreprÃ©sent": 8183,
      "ĠClub": 8184,
      "Ġpounds": 8185,
      "ĠCentre": 8186,
      "ĠTre": 8187,
      "Ġprend": 8188,
      "Ġtiny": 8189,
      "Ġagencies": 8190,
      "TTCA": 8191,
      "ĠCalcul": 8192,
      "Oh": 8193,
      "Ġfruits": 8194,
      "ĠBul": 8195,
      "when": 8196,
      "ĠGuide": 8197,
      "Ã«": 8198,
      "Ġchannel": 8199,
      "Ġconfirmed": 8200,
      "Ġfant": 8201,
      "ĠDie": 8202,
      "Ġsuccessfully": 8203,
      "Ġmoist": 8204,
      "Ġtravail": 8205,
      "hire": 8206,
      "Ġscholars": 8207,
      "Ġdistributed": 8208,
      "ao": 8209,
      "Ġempty": 8210,
      "ĠdÃ©m": 8211,
      "ĠChem": 8212,
      "ĠHand": 8213,
      "ĠAS": 8214,
      "=:": 8215,
      "Ġaffects": 8216,
      "Ġinvolving": 8217,
      "Mj": 8218,
      "list": 8219,
      "ĠAlexander": 8220,
      "Ġbattery": 8221,
      "Ġstages": 8222,
      "Ġinteract": 8223,
      "FL": 8224,
      "EM": 8225,
      "Ġ34": 8226,
      "ĠDate": 8227,
      "Ġbringing": 8228,
      "Ġdecade": 8229,
      "Ġjur": 8230,
      "Ġrelax": 8231,
      "Ġpup": 8232,
      "Ġattached": 8233,
      "ĠIndians": 8234,
      "Ġcul": 8235,
      "ministration": 8236,
      "ateurs": 8237,
      "inson": 8238,
      "forcement": 8239,
      "Ġvegetables": 8240,
      "iber": 8241,
      "Ġprogramme": 8242,
      "tte": 8243,
      "omes": 8244,
      "Ġinvolve": 8245,
      "Ġcollaboration": 8246,
      "ĠCle": 8247,
      "Ġblocks": 8248,
      "Ġroof": 8249,
      "ptions": 8250,
      "inen": 8251,
      "Ġtur": 8252,
      "iti": 8253,
      "ĠCapt": 8254,
      "Ġroyal": 8255,
      "Ã¡n": 8256,
      "obile": 8257,
      "ĠSup": 8258,
      "Ġeld": 8259,
      "Now": 8260,
      "Yes": 8261,
      "Ġengaged": 8262,
      "Ġtoler": 8263,
      "Ġconfident": 8264,
      "ĠAR": 8265,
      "ĠEarly": 8266,
      "ĠSat": 8267,
      "eau": 8268,
      "Ġordinary": 8269,
      "jours": 8270,
      "Ġhyper": 8271,
      "ulaire": 8272,
      "Ġsupports": 8273,
      "Ġmanufacturing": 8274,
      "Ġsched": 8275,
      "Ã³n": 8276,
      "NS": 8277,
      "Ġsouvent": 8278,
      "Ġshad": 8279,
      "Ġ//": 8280,
      "Ġorganized": 8281,
      "Ġsale": 8282,
      "aG": 8283,
      "unes": 8284,
      "Ġtransmission": 8285,
      "ĠOl": 8286,
      "Ġmultipl": 8287,
      "Ġfaces": 8288,
      "âĢĻ.": 8289,
      "ĠLocal": 8290,
      "ito": 8291,
      "Ġchampion": 8292,
      "Ġille": 8293,
      "antic": 8294,
      "Ġoli": 8295,
      "eld": 8296,
      "hd": 8297,
      "Ġtelevision": 8298,
      "Sc": 8299,
      "âĢĻ,": 8300,
      "orous": 8301,
      "Ġstake": 8302,
      "ĠDar": 8303,
      "ĠCommunity": 8304,
      "Ġlibert": 8305,
      ",\\\"": 8306,
      "isons": 8307,
      "Ġtelling": 8308,
      "Ġcutting": 8309,
      "Ġsout": 8310,
      "weight": 8311,
      "Ġingred": 8312,
      "Ġregulations": 8313,
      "Ġgovernments": 8314,
      "Aut": 8315,
      "Ġspin": 8316,
      "azon": 8317,
      "Ġpump": 8318,
      "lle": 8319,
      "ĠStudy": 8320,
      "Ġobjective": 8321,
      "ĠPoint": 8322,
      "enger": 8323,
      "una": 8324,
      "Ġmoy": 8325,
      "Ġultimately": 8326,
      "Ġboat": 8327,
      "Ġinfections": 8328,
      "Ġdecline": 8329,
      "rec": 8330,
      "Ġobservations": 8331,
      "igenous": 8332,
      "Ġsettings": 8333,
      "orted": 8334,
      "ĠprÃ©c": 8335,
      "bid": 8336,
      "Ġcharges": 8337,
      "Why": 8338,
      "Ã©rique": 8339,
      "Ġquatre": 8340,
      "Ġhole": 8341,
      "ulating": 8342,
      "mation": 8343,
      "igue": 8344,
      "Ġcriminal": 8345,
      "ĠPC": 8346,
      "Ġphilosophy": 8347,
      "plo": 8348,
      "Ġils": 8349,
      "Ġcomplexity": 8350,
      "mbre": 8351,
      "Ġrealize": 8352,
      "Ġcher": 8353,
      "Ġplenty": 8354,
      "Ġinjuries": 8355,
      "ĠSom": 8356,
      "div": 8357,
      "ishop": 8358,
      "Ġdestroyed": 8359,
      "Ġmechanism": 8360,
      "aland": 8361,
      "ĠEnd": 8362,
      "Ġexception": 8363,
      "Ġnouveau": 8364,
      "THE": 8365,
      "Ġsister": 8366,
      "Ġentertain": 8367,
      "quar": 8368,
      "ĠIra": 8369,
      "Ġemotions": 8370,
      "iov": 8371,
      "Ġeditor": 8372,
      "istent": 8373,
      "BT": 8374,
      "ĠNature": 8375,
      "Ġplanned": 8376,
      "friend": 8377,
      "Ġbehaviour": 8378,
      "Ġmuse": 8379,
      "log": 8380,
      "ben": 8381,
      "ĠReal": 8382,
      "ĠCreat": 8383,
      "Me": 8384,
      "izabeth": 8385,
      "aines": 8386,
      "elve": 8387,
      "ĠAgain": 8388,
      "Ġoutcome": 8389,
      "ĠWeek": 8390,
      "orters": 8391,
      "ĠExam": 8392,
      "Ġdies": 8393,
      "ĠAst": 8394,
      "TACA": 8395,
      "TGGA": 8396,
      "Ġsuspect": 8397,
      "Ġconsumer": 8398,
      "ĠRam": 8399,
      "ĠCarl": 8400,
      "Ġsurve": 8401,
      "Ġlocations": 8402,
      "Ġregional": 8403,
      "Ġlaunched": 8404,
      "este": 8405,
      "Ġenv": 8406,
      "GGCA": 8407,
      "xture": 8408,
      "Ġstrengthen": 8409,
      "uan": 8410,
      "ĠIndust": 8411,
      "Ġinformed": 8412,
      "Res": 8413,
      "Ġmodule": 8414,
      "imensions": 8415,
      "Ġimpacts": 8416,
      "Ġsad": 8417,
      "Ġfans": 8418,
      "ften": 8419,
      "Ġchallenging": 8420,
      "Ġautre": 8421,
      "ĠFar": 8422,
      "Ġadvent": 8423,
      "bourg": 8424,
      "Ġagricultural": 8425,
      "Ġfabric": 8426,
      "Ġreceiving": 8427,
      "Ġguidelines": 8428,
      "ĠQueen": 8429,
      "Ġproducing": 8430,
      "Ġartists": 8431,
      "ĠLew": 8432,
      "Ġflag": 8433,
      "Ġagents": 8434,
      "Ġbiological": 8435,
      "nB": 8436,
      "Ġcontrovers": 8437,
      "Ġelectronic": 8438,
      "Ġstudying": 8439,
      "ĠDivision": 8440,
      "Ġcomputers": 8441,
      "Ġlaugh": 8442,
      "oval": 8443,
      "Ġhal": 8444,
      "Ġske": 8445,
      "Ġveter": 8446,
      "Ġecosystem": 8447,
      "Ġbranch": 8448,
      "Ġdropped": 8449,
      "DP": 8450,
      "ĠRights": 8451,
      "ibli": 8452,
      "Ġincl": 8453,
      "rients": 8454,
      "Ġnormally": 8455,
      "Ġfunctional": 8456,
      "erted": 8457,
      "Ġsummary": 8458,
      "ĠBrazil": 8459,
      "ĠWindows": 8460,
      "Ġmu": 8461,
      "ĠName": 8462,
      "ĠPsych": 8463,
      "Ġfacing": 8464,
      "TGCA": 8465,
      "Ġ65": 8466,
      "Ġsharp": 8467,
      "Ġitem": 8468,
      "Ġcareful": 8469,
      "ĠNorthern": 8470,
      "ĠFranÃ§": 8471,
      "Ġ01": 8472,
      "ova": 8473,
      "Ġdefinitely": 8474,
      "nF": 8475,
      "eries": 8476,
      "Ġdealing": 8477,
      "ĠPierre": 8478,
      "Ġpointed": 8479,
      "ĠCho": 8480,
      "Ġcarrying": 8481,
      "Ġ48": 8482,
      "ni": 8483,
      "Ġstrange": 8484,
      "ĠRevolution": 8485,
      "itement": 8486,
      "Ġfaced": 8487,
      "Ġestimates": 8488,
      "ĠWilliams": 8489,
      "Ġcryst": 8490,
      "Ġalign": 8491,
      "Ġyes": 8492,
      "ulty": 8493,
      "cribed": 8494,
      "Ġdraft": 8495,
      "Ġtables": 8496,
      "inity": 8497,
      "Ġelectron": 8498,
      "Ġlegisl": 8499,
      "ti": 8500,
      "Ġclients": 8501,
      "aylor": 8502,
      "Ġdelivery": 8503,
      "Ġfont": 8504,
      "Ġminister": 8505,
      "ĠKenn": 8506,
      "ypes": 8507,
      "ĠBudd": 8508,
      "Ġconcer": 8509,
      "Ġwww": 8510,
      "UL": 8511,
      "pa": 8512,
      "ĠMu": 8513,
      "Ġdirected": 8514,
      "Ġjoy": 8515,
      "ĠJon": 8516,
      "Ġsurprise": 8517,
      "Ġarguments": 8518,
      "ĠlÃ©g": 8519,
      "chant": 8520,
      "Ġdiagnosis": 8521,
      "Ġtank": 8522,
      "lab": 8523,
      "Ġ~": 8524,
      "Ġbrings": 8525,
      "ĠDid": 8526,
      "Ġbroke": 8527,
      "Ġgau": 8528,
      "Ġemployment": 8529,
      "ĠAndrew": 8530,
      "Ã£o": 8531,
      "orry": 8532,
      "ĠApple": 8533,
      "ĠÃ©lect": 8534,
      "ĠNorm": 8535,
      "Ġequally": 8536,
      "ĠBal": 8537,
      "ĠComments": 8538,
      "Ġcorrectly": 8539,
      "See": 8540,
      "Ġtheme": 8541,
      "Ð°": 8542,
      "Ġunus": 8543,
      "comple": 8544,
      "Ġnombreux": 8545,
      "Ġunderlying": 8546,
      "erator": 8547,
      "Ġdernier": 8548,
      "ĠAff": 8549,
      "Ġconstantly": 8550,
      "Ġgap": 8551,
      "TCTCA": 8552,
      "ĠNumber": 8553,
      "Ġblind": 8554,
      "Ġcognitive": 8555,
      "Ġweapons": 8556,
      "ĠCir": 8557,
      "heast": 8558,
      "Ġbath": 8559,
      "illion": 8560,
      "Ġinteractions": 8561,
      "ĠDirector": 8562,
      "rique": 8563,
      "indu": 8564,
      "ĠPen": 8565,
      "Ġrecognition": 8566,
      "Ġ1992": 8567,
      "Ġ()": 8568,
      "Ġstem": 8569,
      "ĠPak": 8570,
      "Ġedition": 8571,
      "Ġconsiderable": 8572,
      "Ġopposition": 8573,
      "ĠLabor": 8574,
      "Ġteen": 8575,
      "Ġquantity": 8576,
      "Des": 8577,
      "Ġroles": 8578,
      "Ġhorses": 8579,
      "haust": 8580,
      "Ġwinning": 8581,
      "velt": 8582,
      "Ġcreates": 8583,
      "Ġcerem": 8584,
      "Ġgained": 8585,
      "Ġremind": 8586,
      "ĠOnline": 8587,
      "Ãº": 8588,
      "ĠHit": 8589,
      "Europe": 8590,
      "ĠNASA": 8591,
      "Ġï¿½": 8592,
      "Ġinsights": 8593,
      "ĠStan": 8594,
      "Ġtravers": 8595,
      "Ã©tique": 8596,
      "ĠJustice": 8597,
      "Ġscheme": 8598,
      "century": 8599,
      "ÏĦ": 8600,
      "Ġconsumers": 8601,
      "Ġtoxic": 8602,
      "Ġtreatments": 8603,
      "ĠKen": 8604,
      "Ġhonest": 8605,
      "ĠMoreover": 8606,
      "Ġterritory": 8607,
      "Ġevil": 8608,
      "ĠCy": 8609,
      "ĠEU": 8610,
      "Can": 8611,
      "ĠgÃ©": 8612,
      "ĠContin": 8613,
      "Ġcomfortable": 8614,
      "eling": 8615,
      "some": 8616,
      "ĠFre": 8617,
      "ethe": 8618,
      "Ġhaz": 8619,
      "Ġparticipation": 8620,
      "Ġamazing": 8621,
      "âĢĶâĢĶ": 8622,
      "ĠType": 8623,
      "Ġderiv": 8624,
      "Ġvideos": 8625,
      "anes": 8626,
      "cha": 8627,
      "words": 8628,
      "ĠIP": 8629,
      "Ed": 8630,
      "Ġadj": 8631,
      "ortion": 8632,
      "ĠOffic": 8633,
      "si": 8634,
      "ĠOrig": 8635,
      "ĠEp": 8636,
      "ĠNever": 8637,
      "Ġunion": 8638,
      "Ġrac": 8639,
      "Ġintent": 8640,
      "ĠCard": 8641,
      "ĠFamily": 8642,
      "ĠIrish": 8643,
      "Ġongoing": 8644,
      "Ġadequ": 8645,
      "kg": 8646,
      "Ġhousing": 8647,
      "Ġdemonstrate": 8648,
      "Ġhandling": 8649,
      "Ġ38": 8650,
      "Ġsuffered": 8651,
      "Ġpin": 8652,
      "ctic": 8653,
      "lights": 8654,
      "Ġmagnetic": 8655,
      "Ġmyst": 8656,
      "char": 8657,
      "abol": 8658,
      "uits": 8659,
      "onent": 8660,
      "Ġ1950": 8661,
      "Ġhappening": 8662,
      "Ġabsence": 8663,
      "would": 8664,
      "Ġvi": 8665,
      "Ġmeasurement": 8666,
      "Ġassociation": 8667,
      "ĠFer": 8668,
      "Ġabstract": 8669,
      "Ġenvironments": 8670,
      "Ġinject": 8671,
      "perty": 8672,
      "erior": 8673,
      "Ġradical": 8674,
      "Ġdriven": 8675,
      "raine": 8676,
      "Ġvoltage": 8677,
      "Ġjan": 8678,
      "fast": 8679,
      "Ġbigger": 8680,
      "Ġstreets": 8681,
      "ĠWhether": 8682,
      "Ġproduces": 8683,
      "gon": 8684,
      "ĠIran": 8685,
      "ĠRev": 8686,
      "Ġ1993": 8687,
      "ĠPass": 8688,
      "athan": 8689,
      "ĠLin": 8690,
      "reek": 8691,
      "ĠAnton": 8692,
      "ĠBru": 8693,
      "Ġconnections": 8694,
      "Not": 8695,
      "ĠLess": 8696,
      "Ġabund": 8697,
      "osevelt": 8698,
      "Ġpresents": 8699,
      "Ġelected": 8700,
      "Ġpropri": 8701,
      "Ġnarrative": 8702,
      "eder": 8703,
      "icted": 8704,
      "dated": 8705,
      "ĠSimilar": 8706,
      "ĠWH": 8707,
      "ropÃ©": 8708,
      "athered": 8709,
      "Ġguidance": 8710,
      "cht": 8711,
      "Ġalter": 8712,
      "Ġspat": 8713,
      "Ġconvert": 8714,
      "etal": 8715,
      "nex": 8716,
      "Ġfalling": 8717,
      "Ġtrained": 8718,
      "Ġpanel": 8719,
      "Ġstatistical": 8720,
      "cole": 8721,
      "Ġsplit": 8722,
      "ĠKn": 8723,
      "Ġconj": 8724,
      "Ġinvention": 8725,
      "ĠEs": 8726,
      "Ġvitamin": 8727,
      "redit": 8728,
      "ĠCross": 8729,
      "ĠWay": 8730,
      "Ġaccum": 8731,
      "cover": 8732,
      "Ġstrongly": 8733,
      "Ġwriters": 8734,
      "Ġsie": 8735,
      "Ġnotion": 8736,
      "Ġdoctors": 8737,
      "Ġversions": 8738,
      "fortunately": 8739,
      "edu": 8740,
      "Ġbones": 8741,
      "Ġcounty": 8742,
      "agen": 8743,
      "acon": 8744,
      "ĠSher": 8745,
      "ĠCOVID": 8746,
      "hard": 8747,
      "bro": 8748,
      "ĠCost": 8749,
      "Ġcompte": 8750,
      "Ġsolving": 8751,
      "Ġvelocity": 8752,
      "uve": 8753,
      "Ġaur": 8754,
      "Ġtrading": 8755,
      "ÃŃa": 8756,
      "Ġwine": 8757,
      "elly": 8758,
      "Ġfairly": 8759,
      "Ġschedule": 8760,
      "quel": 8761,
      "Ġtransformation": 8762,
      "ïľ": 8763,
      "Ġremote": 8764,
      "Ġhydro": 8765,
      "QU": 8766,
      "ounder": 8767,
      "Ġintervention": 8768,
      "ĠRoy": 8769,
      "ĠMars": 8770,
      "atively": 8771,
      "Ġresponses": 8772,
      "Ġq": 8773,
      "cific": 8774,
      "Ġcovers": 8775,
      "ĠMarg": 8776,
      "Ġupdate": 8777,
      "Ġfewer": 8778,
      "ĠLi": 8779,
      "inated": 8780,
      "Ġ42": 8781,
      "Ġcad": 8782,
      "them": 8783,
      "ĠLead": 8784,
      "Ġabsolute": 8785,
      "abul": 8786,
      "Ġviv": 8787,
      "Åį": 8788,
      "Ġchemicals": 8789,
      "ĠIT": 8790,
      "Ġsevent": 8791,
      "Col": 8792,
      "ĠMot": 8793,
      "Ġtrend": 8794,
      "Ġundert": 8795,
      "iah": 8796,
      "Ġcomposed": 8797,
      "Ġfur": 8798,
      "Ġraw": 8799,
      "ĠAri": 8800,
      "ĠBlue": 8801,
      "cap": 8802,
      "ji": 8803,
      "Ġlosing": 8804,
      "Ġquad": 8805,
      "Ġsurvive": 8806,
      "Ġalive": 8807,
      "irus": 8808,
      "Ġtea": 8809,
      "apping": 8810,
      "Ġsheet": 8811,
      "Ġcompens": 8812,
      "Ġhel": 8813,
      "yant": 8814,
      "Ġspecified": 8815,
      "inton": 8816,
      "ĠShow": 8817,
      "Ã¨se": 8818,
      "Ġeastern": 8819,
      "Ġpreced": 8820,
      "Ġdisturb": 8821,
      "Ġstronger": 8822,
      "Ġagriculture": 8823,
      "ĠMedia": 8824,
      "ĠHard": 8825,
      "Ġfeels": 8826,
      "uns": 8827,
      "ĠRay": 8828,
      "Ġtom": 8829,
      "ĠMedicine": 8830,
      "ĠLittle": 8831,
      "Ġevaluation": 8832,
      "Ġloan": 8833,
      "Ġextension": 8834,
      "ĠCub": 8835,
      "Ġancest": 8836,
      "ĠcÃ´": 8837,
      "Ġpackage": 8838,
      "Ġimplemented": 8839,
      "Ġflower": 8840,
      "Ġwheel": 8841,
      "Ġvib": 8842,
      "Ġdelivered": 8843,
      "Ġparticipate": 8844,
      "800": 8845,
[...]
